<pad>	0
<s>	0
</s>	0
<unk>	0
,	-2.93013
.	-3.364
▁the	-3.48126
▁in	-4.12144
▁die	-4.12145
▁of	-4.16046
▁der	-4.20917
▁to	-4.23581
▁and	-4.39951
▁und	-4.42946
▁	-4.73398
▁that	-4.88862
s	-4.90104
▁a	-4.91193
▁is	-4.92668
▁zu	-5.15696
▁den	-5.25712
▁I	-5.31318
▁for	-5.31706
-	-5.41
▁on	-5.44805
▁für	-5.46999
▁von	-5.48509
▁ist	-5.49085
▁be	-5.50364
▁this	-5.55736
▁we	-5.58123
▁das	-5.67256
en	-5.69427
▁dass	-5.69766
▁nicht	-5.7138
▁wir	-5.71421
▁des	-5.71832
▁are	-5.73949
▁auf	-5.75304
▁have	-5.78775
▁it	-5.79126
n	-5.79357
▁eine	-5.81245
▁an	-5.82956
▁not	-5.83161
▁werden	-5.86901
▁-	-5.8978
▁with	-5.90181
▁as	-5.90282
▁which	-5.93227
▁es	-5.96689
▁European	-5.97815
▁mit	-5.97875
▁im	-5.98101
▁ich	-6.01682
▁will	-6.03935
▁The	-6.07223
▁auch	-6.07475
▁by	-6.10298
▁Union	-6.11663
▁dem	-6.13734
▁ein	-6.19929
▁has	-6.21684
e	-6.22344
▁sich	-6.25368
▁wird	-6.2623
▁Ich	-6.26813
'	-6.26957
▁haben	-6.33124
▁Die	-6.33519
▁sind	-6.35029
▁Mr	-6.37182
▁also	-6.41613
▁was	-6.44993
▁hat	-6.45042
▁um	-6.45912
▁EU	-6.46372
▁Kommission	-6.47224
▁Commission	-6.48039
▁so	-6.48311
▁(	-6.49857
▁über	-6.50426
▁all	-6.51592
▁at	-6.53081
▁would	-6.53718
:	-6.55636
▁wie	-6.57195
▁daß	-6.57754
▁sie	-6.58707
▁Herr	-6.5921
▁als	-6.59418
▁should	-6.59518
)	-6.59747
▁In	-6.61702
▁zur	-6.61922
▁We	-6.62727
▁President	-6.63543
▁from	-6.64545
▁our	-6.67374
▁must	-6.67976
▁Wir	-6.71167
▁but	-6.73363
▁einer	-6.73368
▁diese	-6.76701
▁been	-6.77447
▁Sie	-6.7867
?	-6.80763
▁uns	-6.81705
▁bei	-6.81893
▁Parliament	-6.85641
▁müssen	-6.8629
▁It	-6.87369
▁you	-6.88214
▁einen	-6.88307
▁can	-6.89326
▁dieser	-6.906
▁möchte	-6.92675
▁Member	-6.93825
▁more	-6.95104
er	-6.95465
▁am	-6.95606
▁report	-6.96889
▁or	-6.96925
▁States	-6.98782
▁Präsident	-6.98999
▁Bericht	-7.00191
▁its	-7.00575
▁vor	-7.01405
▁do	-7.0152
▁Es	-7.0203
▁Council	-7.02367
▁their	-7.02529
!	-7.03306
▁there	-7.03336
▁like	-7.03451
▁noch	-7.038
▁Europäische	-7.04378
▁aus	-7.04868
▁können	-7.05017
▁Das	-7.06343
▁very	-7.0718
▁diesem	-7.07482
▁Europe	-7.08958
▁nur	-7.0967
▁kann	-7.10087
▁nach	-7.10478
▁Parlament	-7.1079
Europäischen	-7.11965
▁This	-7.1216
▁these	-7.13282
▁aber	-7.13332
▁wenn	-7.15065
▁zum	-7.15136
▁they	-7.15436
▁durch	-7.16924
▁sein	-7.17232
▁oder	-7.17334
▁sehr	-7.17598
▁one	-7.18027
▁countries	-7.19782
▁Mitgliedstaaten	-7.21038
;	-7.22681
▁who	-7.2395
▁about	-7.26874
▁other	-7.27114
▁what	-7.27632
ing	-7.27978
▁us	-7.28945
▁need	-7.29505
r	-7.3081
▁important	-7.33995
▁people	-7.35029
▁my	-7.35242
▁einem	-7.35244
▁–	-7.357
▁only	-7.36487
▁new	-7.37234
▁Frau	-7.37791
▁time	-7.38644
▁policy	-7.38741
▁muss	-7.39302
▁Europa	-7.39884
▁Der	-7.40144
▁dieses	-7.40653
▁because	-7.41345
▁if	-7.41617
▁wurde	-7.4335
▁no	-7.43626
▁Rat	-7.4827
▁up	-7.4925
▁out	-7.51276
▁support	-7.51431
▁mehr	-7.52551
▁now	-7.52596
▁such	-7.53127
▁alle	-7.53517
▁take	-7.55565
▁ihre	-7.55713
▁make	-7.56295
es	-7.56611
▁er	-7.57814
▁into	-7.58163
▁man	-7.59295
▁between	-7.59462
▁hier	-7.59466
▁those	-7.59533
▁Entwicklung	-7.59606
▁work	-7.59996
▁war	-7.61359
ed	-7.61414
▁habe	-7.63387
▁zwischen	-7.6381
▁diesen	-7.64695
d	-7.65172
t	-7.65452
▁europäischen	-7.66037
▁rights	-7.66052
m	-7.6667
▁therefore	-7.66693
▁when	-7.66721
▁some	-7.67581
▁being	-7.68624
▁eines	-7.69112
▁any	-7.69198
▁gibt	-7.70716
▁political	-7.71548
▁unsere	-7.71931
▁keine	-7.72006
▁damit	-7.72498
▁them	-7.72721
▁made	-7.73016
▁"	-7.73222
▁Frage	-7.73383
▁were	-7.73431
▁mich	-7.73569
▁gegen	-7.74333
▁way	-7.74669
▁than	-7.75661
▁Commissioner	-7.75842
▁believe	-7.76093
▁economic	-7.76326
▁jedoch	-7.78269
▁sondern	-7.79257
▁unter	-7.79499
▁say	-7.80373
▁fact	-7.82356
▁Herrn	-7.82459
▁many	-7.82687
▁proposal	-7.827
▁anderen	-7.83463
▁against	-7.83479
▁Maßnahmen	-7.83586
▁heute	-7.84731
▁sollte	-7.84868
▁Menschen	-7.85045
▁sollten	-7.85564
▁first	-7.85786
▁debate	-7.86665
▁market	-7.87314
▁da	-7.88086
▁social	-7.88086
▁'	-7.88644
▁dann	-7.88734
▁dies	-7.88832
▁sowie	-7.89329
▁That	-7.89954
▁think	-7.90747
▁Committee	-7.91818
▁bereits	-7.92146
▁development	-7.92317
▁just	-7.9236
▁Recht	-7.92578
▁issue	-7.92979
▁point	-7.9358
▁well	-7.93606
▁Parlaments	-7.93889
▁human	-7.94479
▁immer	-7.95332
▁order	-7.95452
▁years	-7.96012
▁weil	-7.96909
▁question	-7.9712
▁situation	-7.97361
▁future	-7.97719
▁right	-7.98183
▁bin	-7.98978
▁two	-7.99087
▁Bürger	-7.99237
▁country	-7.9931
▁meine	-7.99328
▁here	-7.99416
▁wurden	-7.99609
▁cannot	-7.99919
▁want	-8.00194
▁As	-8.00306
▁does	-8.00629
▁citizens	-8.00784
▁Vorschlag	-8.0114
▁same	-8.01319
▁even	-8.01399
▁had	-8.01581
▁Arbeit	-8.01645
▁possible	-8.01787
▁measures	-8.0186
▁darauf	-8.02144
▁denn	-8.02282
▁vom	-8.02887
▁unserer	-8.02952
▁part	-8.03026
ly	-8.03411
▁ganz	-8.03837
▁could	-8.04066
▁public	-8.04208
▁dafür	-8.04665
▁sagen	-8.05355
▁me	-8.0542
▁national	-8.05625
▁said	-8.05811
▁most	-8.06229
▁today	-8.06284
▁geht	-8.06428
▁A	-8.06783
▁agreement	-8.06847
▁denen	-8.07294
▁clear	-8.07551
▁much	-8.07967
▁jetzt	-8.08042
▁already	-8.08616
▁good	-8.0869
▁where	-8.08974
▁over	-8.09059
▁dazu	-8.09917
▁Wenn	-8.10045
in	-8.10223
▁Kollegen	-8.1079
▁vote	-8.10859
▁too	-8.10892
▁within	-8.1175
▁still	-8.11779
▁ihrer	-8.12407
▁know	-8.12685
▁mir	-8.13718
▁how	-8.13746
▁see	-8.138
▁year	-8.14042
▁financial	-8.14198
▁There	-8.14716
▁Sicherheit	-8.14872
▁common	-8.1503
▁Kommissar	-8.15075
▁use	-8.153
▁However	-8.15332
▁particular	-8.15471
▁both	-8.15636
▁neuen	-8.15881
▁Mrs	-8.16263
▁international	-8.16665
▁insbesondere	-8.16889
▁course	-8.17434
▁view	-8.17858
▁würde	-8.18277
▁under	-8.18299
▁Community	-8.18507
▁cooperation	-8.18838
▁selbst	-8.18839
"	-8.18851
▁hope	-8.19028
▁Zeit	-8.19702
▁world	-8.20142
▁your	-8.20359
▁Länder	-8.20664
▁own	-8.20798
▁taken	-8.21175
▁Diese	-8.21185
▁muß	-8.21256
▁Ihnen	-8.21714
▁level	-8.21775
▁ensure	-8.21781
▁case	-8.21939
▁Zusammenarbeit	-8.21981
▁system	-8.22315
▁wichtig	-8.22383
▁able	-8.22649
▁doch	-8.22861
▁Bereich	-8.23139
▁area	-8.23555
▁allem	-8.24011
▁his	-8.24068
▁Gemeinschaft	-8.24455
▁wollen	-8.24467
▁Unterstützung	-8.245
▁Rahmen	-8.24667
▁place	-8.24938
▁ob	-8.25149
▁Jahr	-8.25836
▁process	-8.26445
▁einige	-8.26622
▁machen	-8.26684
▁why	-8.27098
▁neue	-8.27233
▁Regierung	-8.27633
▁put	-8.27714
▁Richtlinie	-8.27759
▁bis	-8.27776
▁energy	-8.2838
▁last	-8.28507
▁rapporteur	-8.28571
▁ohne	-8.28658
▁seine	-8.29391
▁andere	-8.29425
▁number	-8.29827
▁problem	-8.29855
▁means	-8.29955
▁information	-8.30037
▁Land	-8.30192
▁may	-8.30415
▁example	-8.3057
▁allen	-8.30883
▁action	-8.31025
▁he	-8.31037
▁gentlemen	-8.31843
ung	-8.32174
▁Jahren	-8.32714
▁without	-8.32824
▁wissen	-8.33184
▁through	-8.33665
▁House	-8.33819
▁wäre	-8.34328
▁however	-8.34555
▁directive	-8.34637
▁budget	-8.34721
▁Problem	-8.348
▁If	-8.35164
▁end	-8.35438
▁Im	-8.35501
▁problems	-8.35527
▁tun	-8.36819
▁Madam	-8.37489
▁zwei	-8.37959
▁So	-8.38367
▁Namen	-8.38391
▁necessary	-8.38468
▁particularly	-8.38573
▁give	-8.38592
▁Dies	-8.38705
▁long	-8.38828
▁legal	-8.38841
▁meiner	-8.38891
▁Wie	-8.38983
▁great	-8.39028
▁Unternehmen	-8.39241
▁schon	-8.39382
▁s	-8.39694
▁Ländern	-8.40171
▁before	-8.4029
▁protection	-8.40352
▁Präsidentin	-8.40365
▁far	-8.40521
▁einmal	-8.40525
▁Fall	-8.41115
▁Meinung	-8.41153
▁issues	-8.41217
▁resolution	-8.41306
▁respect	-8.41326
▁position	-8.41842
▁Ziel	-8.42141
▁Thema	-8.42436
▁given	-8.42532
▁regard	-8.42701
▁areas	-8.42772
▁law	-8.42817
▁security	-8.42982
▁Treaty	-8.43472
▁matter	-8.43524
▁soll	-8.4383
▁Mittel	-8.43869
▁europäische	-8.43899
▁wieder	-8.44602
▁Group	-8.44734
/	-8.44963
▁viele	-8.45119
▁Bedeutung	-8.45546
▁women	-8.45595
▁Entschließung	-8.45602
▁darüber	-8.45818
▁politischen	-8.45927
▁Euro	-8.46399
▁Fragen	-8.4649
▁etwas	-8.4686
▁Lage	-8.47001
▁Fraktion	-8.47265
▁thank	-8.47425
▁whether	-8.47557
▁nun	-8.47742
▁sector	-8.47984
▁worden	-8.48005
▁Politik	-8.48014
▁unterstützen	-8.48238
▁role	-8.48431
▁ladies	-8.48462
▁decision	-8.48478
▁again	-8.48506
▁viel	-8.48598
▁amendments	-8.48706
▁Rates	-8.48852
▁set	-8.49132
▁Was	-8.4938
▁besteht	-8.49538
▁Zukunft	-8.49674
▁Frauen	-8.49688
▁geben	-8.49844
▁Welt	-8.49858
▁ihren	-8.49984
▁United	-8.50124
▁favour	-8.50458
▁further	-8.50483
▁behalf	-8.50558
▁programme	-8.51198
▁since	-8.51429
▁Staaten	-8.51811
▁daher	-8.52152
▁trade	-8.52155
▁Probleme	-8.52276
▁wirklich	-8.52494
▁Members	-8.52857
▁terms	-8.53208
▁basis	-8.53276
▁Situation	-8.53283
▁natürlich	-8.53467
▁proposals	-8.53487
▁aid	-8.53731
▁certain	-8.5394
▁next	-8.54025
▁services	-8.54537
▁ab	-8.55299
y	-8.55645
▁come	-8.55947
▁done	-8.56083
▁rules	-8.56197
▁Rolle	-8.56535
▁Zusammenhang	-8.56644
▁Wirtschaft	-8.5669
▁adopted	-8.57608
▁gesagt	-8.57771
▁Aussprache	-8.57924
▁help	-8.57934
▁legislation	-8.57979
▁health	-8.58291
▁agree	-8.58292
de	-8.58299
▁different	-8.58555
▁framework	-8.58574
▁Deshalb	-8.58815
▁better	-8.58869
▁zwar	-8.59067
▁present	-8.59155
▁möglich	-8.59392
▁Abstimmung	-8.59616
▁glaube	-8.60314
▁For	-8.6051
▁nämlich	-8.607
▁What	-8.6082
▁Ein	-8.61525
▁crisis	-8.62217
▁Schutz	-8.62359
▁letzten	-8.62409
▁continue	-8.62461
▁opinion	-8.62756
▁But	-8.62928
▁B	-8.63036
▁needs	-8.63439
▁ask	-8.6346
▁progress	-8.6418
▁Verbraucher	-8.64353
▁institutions	-8.64401
den	-8.64588
▁change	-8.64624
Änderungsanträge	-8.65026
▁positive	-8.65034
▁seiner	-8.6533
▁große	-8.6544
▁after	-8.65685
▁wish	-8.65753
▁unseren	-8.6577
▁C	-8.66071
a	-8.66303
▁concerned	-8.66583
▁group	-8.66853
▁Grund	-8.67075
▁going	-8.67234
Berichterstatter	-8.6727
▁davon	-8.67322
▁Teil	-8.67551
▁result	-8.67685
▁forward	-8.68043
▁State	-8.68044
▁Weise	-8.68328
▁betrifft	-8.68883
▁three	-8.69187
▁whole	-8.69243
▁1	-8.69379
▁few	-8.70126
▁ihr	-8.70197
▁welcome	-8.70205
▁könnte	-8.7022
▁then	-8.70324
▁towards	-8.70351
▁Menschenrechte	-8.7038
▁working	-8.70414
▁something	-8.711
▁approach	-8.71241
▁gegenüber	-8.71312
▁daran	-8.71324
▁Punkt	-8.71392
▁Umwelt	-8.71409
l	-8.71819
▁drei	-8.72245
▁principle	-8.7241
▁Aber	-8.72676
▁voted	-8.72826
▁weiter	-8.72983
spolitik	-8.73034
▁go	-8.73063
▁Wettbewerb	-8.73267
▁ja	-8.7328
▁subject	-8.73492
▁Aus	-8.73517
▁resources	-8.73703
▁stellen	-8.73712
▁Europas	-8.73771
▁hoffe	-8.73865
▁conditions	-8.74711
▁Weg	-8.74921
▁wo	-8.75052
▁current	-8.75348
▁Herren	-8.75404
▁including	-8.75867
▁während	-8.7594
▁Und	-8.76236
▁Jahre	-8.76246
▁darf	-8.76411
▁specific	-8.76534
▁importance	-8.76739
▁kein	-8.76882
▁shall	-8.7697
▁proposed	-8.77205
▁dabei	-8.77209
▁opportunity	-8.77358
▁million	-8.77376
▁Lösung	-8.77531
▁did	-8.77631
▁transport	-8.77636
▁really	-8.77792
▁Vorschläge	-8.77848
▁state	-8.78023
▁employment	-8.78023
▁provide	-8.78142
▁politische	-8.78151
▁Artikel	-8.78243
▁gut	-8.78313
▁Presidency	-8.78327
▁second	-8.78386
A	-8.78459
▁Damen	-8.78463
▁Änderungsantrag	-8.7847
▁On	-8.78617
▁account	-8.78729
▁policies	-8.78797
▁used	-8.7883
▁increase	-8.78831
▁authorities	-8.78886
▁together	-8.78909
▁Ansicht	-8.78939
▁nationalen	-8.79084
▁waren	-8.79363
▁stehen	-8.7955
▁Entscheidung	-8.79662
▁down	-8.79687
▁Umsetzung	-8.79787
▁Rechte	-8.79928
▁führen	-8.80116
▁especially	-8.8012
▁Möglichkeit	-8.80372
▁Art	-8.80463
▁sowohl	-8.80537
▁every	-8.80585
▁during	-8.80635
▁general	-8.80702
▁kommen	-8.80704
▁regulation	-8.80738
▁EUR	-8.80761
▁No	-8.80917
▁lassen	-8.81212
▁find	-8.81235
▁darin	-8.81256
▁Kolleginnen	-8.81279
▁Er	-8.81418
▁Debatte	-8.81468
▁strategy	-8.81606
▁industry	-8.81724
▁negotiations	-8.82098
▁Ebene	-8.82155
▁high	-8.82161
▁Beispiel	-8.82251
▁brauchen	-8.82411
al	-8.82415
▁seit	-8.82489
▁clearly	-8.82513
▁besonders	-8.82549
▁become	-8.82679
▁Bezug	-8.82715
▁environmental	-8.829
▁real	-8.83004
▁Abgeordneten	-8.83168
▁least	-8.83181
▁ihnen	-8.83195
▁bringen	-8.8331
▁another	-8.83387
▁research	-8.83444
▁products	-8.83478
▁Demokratie	-8.83638
▁itself	-8.837
▁greater	-8.83718
▁fundamental	-8.8373
▁responsibility	-8.83772
▁safety	-8.83844
▁quite	-8.83948
ten	-8.84074
▁third	-8.84157
▁internationalen	-8.84184
▁steht	-8.84246
▁klar	-8.84546
▁000	-8.84751
▁her	-8.84808
▁serious	-8.85033
▁rather	-8.85108
▁China	-8.8573
▁small	-8.85784
▁Auch	-8.86076
▁gemeinsamen	-8.86168
▁aller	-8.86357
▁Minister	-8.86391
▁liegt	-8.86847
▁dürfen	-8.86859
▁They	-8.86874
▁Verantwortung	-8.87021
▁Mit	-8.87062
▁reason	-8.87428
▁Beschäftigung	-8.87712
▁erhalten	-8.87855
▁un	-8.879
▁großen	-8.87965
▁danken	-8.88098
▁At	-8.88429
▁call	-8.8865
▁Eine	-8.88888
▁democracy	-8.89033
▁always	-8.89109
▁access	-8.89142
▁20	-8.89225
▁difficult	-8.89527
▁deal	-8.89545
▁These	-8.89571
▁Hinblick	-8.89627
▁Millionen	-8.8985
▁essential	-8.89882
▁sozialen	-8.90059
▁regions	-8.90061
▁once	-8.90067
▁attention	-8.90094
▁making	-8.90217
▁achieve	-8.90227
▁get	-8.9027
▁effective	-8.90715
▁weiterhin	-8.90951
▁Verordnung	-8.91191
▁freedom	-8.91415
se	-8.91679
▁welche	-8.91692
▁internal	-8.91705
▁things	-8.91876
▁gemeinsame	-8.91935
▁interests	-8.92227
▁deshalb	-8.92239
▁Verfahren	-8.92297
▁society	-8.92308
▁taking	-8.92587
▁major	-8.92664
▁Hilfe	-8.92783
▁back	-8.92798
▁innerhalb	-8.92802
▁implementation	-8.92846
▁based	-8.93209
▁hand	-8.93239
▁denke	-8.9335
▁gestimmt	-8.93516
▁democratic	-8.93603
▁Daher	-8.93703
▁Ziele	-8.93729
▁Energie	-8.93883
▁Ihre	-8.93937
▁Nach	-8.93978
▁Ausschusses	-8.94022
▁free	-8.94152
▁government	-8.9416
▁Verhandlungen	-8.94195
▁re	-8.9428
▁money	-8.94435
▁environment	-8.94453
▁erreichen	-8.94548
▁Abkommen	-8.94619
▁economy	-8.94649
▁Auf	-8.9465
ou	-8.9474
▁Ausschuss	-8.94871
▁Haushalt	-8.94965
▁deutlich	-8.95222
▁various	-8.95369
▁ersten	-8.95417
▁sollen	-8.95499
▁Vertrag	-8.95624
▁efforts	-8.95629
h	-8.95655
▁wichtige	-8.95914
▁handelt	-8.95995
▁einigen	-8.96007
▁large	-8.96272
▁gerade	-8.96287
▁Ende	-8.96391
▁10	-8.96591
te	-8.97164
▁each	-8.97166
▁Forschung	-8.97271
▁Grundlage	-8.97524
▁yet	-8.9804
▁points	-8.9819
▁procedure	-8.98203
▁words	-8.98282
▁wirtschaftliche	-8.9838
▁allow	-8.98765
▁solche	-8.98793
▁committee	-8.98846
▁notwendig	-8.99159
▁finden	-8.99356
▁Erweiterung	-8.99478
▁Government	-8.99479
▁schaffen	-8.99525
▁while	-8.99711
▁less	-8.99806
▁werde	-8.9984
▁Vereinigte	-9.0009
▁competition	-9.00097
▁Strategie	-9.00299
▁single	-9.0033
▁Regionen	-9.00346
▁consider	-9.00567
▁region	-9.0064
▁weitere	-9.00697
▁Da	-9.00712
▁reform	-9.00718
▁involved	-9.00737
▁Vor	-9.0079
▁full	-9.00795
▁look	-9.00904
▁sprechen	-9.0106
▁Tatsache	-9.01076
▁Institutionen	-9.01161
▁alles	-9.0134
▁2	-9.01462
▁ver	-9.01585
▁beiden	-9.01662
▁gemacht	-9.01672
▁growth	-9.01971
▁Bevölkerung	-9.01991
▁beim	-9.02106
▁gilt	-9.02167
▁funds	-9.02327
▁Auswirkungen	-9.02529
et	-9.02753
▁control	-9.02782
▁unterstützt	-9.02855
▁having	-9.02929
▁best	-9.03006
▁concerns	-9.03066
▁Affairs	-9.03327
▁global	-9.03468
▁würden	-9.03815
▁Anwendung	-9.03962
▁stellt	-9.03962
▁companies	-9.0403
▁Ausdruck	-9.04191
▁power	-9.04409
o	-9.04471
▁indem	-9.04752
▁USA	-9.04835
▁programmes	-9.05088
▁step	-9.05167
▁Interesse	-9.05335
▁peace	-9.05417
st	-9.05879
▁Lissabon	-9.05941
▁objectives	-9.06108
▁children	-9.06285
▁Markt	-9.06323
▁Lisbon	-9.06397
▁workers	-9.06477
▁kommt	-9.06547
▁amendment	-9.06638
▁hinaus	-9.06655
▁interest	-9.06728
▁majority	-9.06907
re	-9.06919
▁15	-9.06995
▁quality	-9.06997
▁Informationen	-9.07038
▁agreements	-9.07126
▁solution	-9.07185
▁Dank	-9.07251
▁standards	-9.07279
▁S	-9.07308
▁fully	-9.07361
▁ebenfalls	-9.07525
▁unser	-9.07586
▁darum	-9.07685
▁Förderung	-9.08035
▁An	-9.08166
▁bring	-9.08201
▁food	-9.0828
▁de	-9.08434
▁certainly	-9.08496
▁To	-9.0861
▁following	-9.08634
▁weniger	-9.08749
▁simply	-9.08965
▁beispielsweise	-9.0918
▁keinen	-9.09366
▁start	-9.09552
▁dialogue	-9.09628
▁recent	-9.09725
▁bedeutet	-9.09813
▁force	-9.0988
▁Gesundheit	-9.09947
▁agricultural	-9.09999
▁production	-9.10026
▁vielen	-9.10044
▁decisions	-9.10096
▁eigenen	-9.1015
▁Türkei	-9.10198
▁main	-9.10282
▁Als	-9.10443
▁UN	-9.1048
▁System	-9.10616
▁often	-9.10666
▁Gebiet	-9.10675
▁3	-9.10691
▁Meine	-9.10732
▁concern	-9.10735
▁dessen	-9.10768
▁Turkey	-9.10775
▁aware	-9.10899
▁verschiedenen	-9.11116
▁extremely	-9.11162
▁Bei	-9.11242
▁accept	-9.11268
▁Behörden	-9.11323
▁Beziehungen	-9.11382
▁hatte	-9.11463
▁period	-9.11547
▁sehen	-9.11591
▁text	-9.11601
▁vielleicht	-9.11777
▁Kommissarin	-9.11944
▁relations	-9.12257
▁regional	-9.12285
▁genau	-9.12382
▁Region	-9.12429
▁context	-9.12475
▁create	-9.1265
▁Kosten	-9.13159
▁groups	-9.13212
▁nehmen	-9.13284
B	-9.1355
▁besser	-9.13568
▁Schaffung	-9.13645
▁einfach	-9.13654
▁Erachtens	-9.13704
▁Antwort	-9.13713
▁deren	-9.13858
▁risk	-9.13911
▁seinen	-9.14088
▁improve	-9.14096
▁And	-9.14097
▁ago	-9.14414
▁enlargement	-9.14523
▁life	-9.1455
▁might	-9.14619
Fraktion	-9.14663
▁initiative	-9.14682
▁form	-9.14722
▁actually	-9.14822
▁erforderlich	-9.14833
▁Zugang	-9.1509
▁G	-9.15346
▁objective	-9.15355
▁developing	-9.15768
▁fight	-9.15869
▁sei	-9.16051
▁öffentlichen	-9.16204
▁Beitrag	-9.16225
▁Notwendigkeit	-9.16242
▁available	-9.16293
▁Let	-9.1647
▁states	-9.16552
▁impact	-9.16594
▁mentioned	-9.16819
f	-9.17037
▁non	-9.17146
▁sogar	-9.17211
▁d	-9.17258
▁sicher	-9.17358
▁Article	-9.17461
▁Court	-9.17475
▁hätte	-9.17532
▁questions	-9.17549
▁jobs	-9.17653
▁euro	-9.17732
▁aufgrund	-9.17941
▁let	-9.17963
wirtschaftlichen	-9.18009
k	-9.18232
▁indeed	-9.1826
▁dort	-9.18364
▁appropriate	-9.18451
▁field	-9.18686
b	-9.18783
▁2000	-9.18877
▁Bedingungen	-9.18981
▁meeting	-9.19122
▁nächsten	-9.1921
▁angenommen	-9.19412
▁Finally	-9.19472
▁open	-9.19575
▁currently	-9.19611
▁Leben	-9.19745
▁Bekämpfung	-9.19782
▁Interessen	-9.19881
▁schriftlich	-9.19883
▁WTO	-9.19925
▁understand	-9.20169
▁5	-9.2032
▁results	-9.20394
▁concerning	-9.20427
▁gehen	-9.20447
▁M	-9.20675
▁könnten	-9.20774
▁Schritt	-9.20781
▁Landwirtschaft	-9.20784
▁Reform	-9.21052
▁Fischerei	-9.21339
▁Verbesserung	-9.21381
ge	-9.21445
▁Reihe	-9.21492
▁Programm	-9.21524
▁weiß	-9.21828
▁Aufgabe	-9.21884
▁Dieser	-9.21986
▁Standpunkt	-9.22222
▁others	-9.2226
▁Verfassung	-9.2234
▁consumers	-9.22439
▁responsible	-9.22481
▁meinen	-9.22694
▁Finanzierung	-9.22896
▁Haus	-9.23238
▁Russia	-9.23276
▁key	-9.2347
▁management	-9.23587
▁Kosovo	-9.23729
▁themselves	-9.23785
▁climate	-9.23859
▁soziale	-9.23898
▁Ver	-9.23988
▁kind	-9.24038
▁legislative	-9.2405
▁All	-9.24067
2	-9.24298
▁hinsichtlich	-9.24443
▁gute	-9.24481
▁erreicht	-9.24484
▁doing	-9.24493
▁members	-9.24505
▁months	-9.24695
▁education	-9.24744
▁heißt	-9.24937
▁Mehrheit	-9.25115
▁ihrem	-9.25246
DE	-9.25293
▁data	-9.25325
▁plan	-9.25547
▁Krise	-9.25582
▁thing	-9.25738
▁Gesellschaft	-9.25758
▁30	-9.258
▁cases	-9.25852
▁Fortschritte	-9.26058
▁needed	-9.26083
▁Kinder	-9.26091
▁Form	-9.26189
an	-9.26256
▁Änderung	-9.26351
▁Tagesordnung	-9.26359
▁Wort	-9.26395
▁compromise	-9.26419
▁With	-9.26422
▁matters	-9.2664
▁wichtigen	-9.26761
be	-9.26798
▁Richtung	-9.27027
▁principles	-9.27114
▁meines	-9.27148
▁reasons	-9.27167
▁allerdings	-9.27215
▁nichts	-9.27308
▁gehört	-9.27441
▁tax	-9.27649
▁enough	-9.27666
▁systems	-9.27667
▁zusammen	-9.2776
▁day	-9.27796
▁individual	-9.27943
▁Präsidentschaft	-9.28216
▁Herausforderung	-9.28953
▁parties	-9.28979
▁Kontrolle	-9.29179
▁ihm	-9.29195
▁Initiative	-9.294
▁begrüße	-9.2943
▁halte	-9.2951
▁Programme	-9.29651
6	-9.29732
▁Für	-9.29826
▁Convention	-9.2988
▁dar	-9.29913
em	-9.30106
svorschriften	-9.30122
▁projects	-9.3031
▁costs	-9.30322
▁feel	-9.30398
▁longer	-9.30441
▁funding	-9.30544
▁äußerst	-9.30673
▁though	-9.30729
▁achieved	-9.30818
▁draft	-9.30848
▁25	-9.30925
▁lack	-9.31009
▁Arbeitnehmer	-9.31058
▁activities	-9.31105
▁regards	-9.31155
▁special	-9.31213
▁promote	-9.31429
▁Jahres	-9.31467
▁fördern	-9.31503
▁ihn	-9.31521
▁Gelegenheit	-9.31542
▁Ergebnis	-9.3182
▁idea	-9.31934
▁joint	-9.31935
▁writing	-9.31944
▁Handel	-9.31991
▁commitment	-9.32015
▁priority	-9.32015
▁local	-9.32132
▁Bereichen	-9.32183
▁among	-9.32231
▁Industrie	-9.32355
▁halten	-9.32548
▁erste	-9.32618
▁although	-9.32749
▁Zu	-9.32796
▁völlig	-9.32845
▁Auffassung	-9.32854
▁Um	-9.32906
▁past	-9.32992
▁gemeinsam	-9.33067
▁weit	-9.33335
▁significant	-9.33434
▁gegeben	-9.33466
▁12	-9.33656
▁final	-9.33707
▁My	-9.33716
▁little	-9.33785
▁moment	-9.33914
▁erst	-9.34066
▁congratulate	-9.34096
▁line	-9.34151
▁Diskussion	-9.34205
▁true	-9.34205
▁jeder	-9.3425
▁act	-9.34261
ä	-9.34487
▁einzelnen	-9.34505
▁due	-9.34519
▁mean	-9.34583
▁aim	-9.34594
▁excellent	-9.3477
▁sure	-9.34931
▁effect	-9.35026
▁Amendment	-9.3506
▁labour	-9.35181
▁governments	-9.35271
▁meinem	-9.35372
▁nothing	-9.35391
▁sustainable	-9.35493
▁Israel	-9.35535
▁provided	-9.35557
▁richtig	-9.35685
▁young	-9.35818
sten	-9.3582
▁Dialog	-9.35912
▁Geld	-9.35951
▁prevent	-9.36083
▁Mitglieder	-9.36145
▁europäischer	-9.36235
▁bereit	-9.3639
▁perhaps	-9.36402
▁Bürgerinnen	-9.36417
▁Erklärung	-9.36654
▁F	-9.36731
▁strong	-9.36805
▁reports	-9.36887
▁nuclear	-9.37083
▁lead	-9.37221
▁Rights	-9.3726
▁include	-9.3727
▁Transparenz	-9.37403
▁Berichts	-9.3752
▁bleiben	-9.37629
▁E	-9.37663
▁solidarity	-9.37674
▁gestellt	-9.37878
▁project	-9.38082
▁Wirtschafts	-9.38166
▁agenda	-9.38171
▁Solidarität	-9.38176
▁Internet	-9.38205
▁Directive	-9.38264
▁tatsächlich	-9.38318
▁Regierungen	-9.38466
▁Einführung	-9.38716
▁guarantee	-9.38765
▁above	-9.38993
▁gewährleisten	-9.39058
▁50	-9.39126
▁gesamten	-9.39215
▁regarding	-9.39248
▁agreed	-9.39303
▁play	-9.3933
▁Gewalt	-9.39402
erstatterin	-9.3942
▁ebenso	-9.39436
Office	-9.39493
sfähigkeit	-9.3979
▁integration	-9.39918
▁consumer	-9.40082
▁Erfolg	-9.40124
▁aspects	-9.40136
▁Verfügung	-9.4014
▁Folgen	-9.40142
▁hin	-9.40223
c	-9.40293
▁US	-9.40357
▁Integration	-9.40468
▁derzeit	-9.40508
▁remain	-9.40627
▁Text	-9.40969
▁gleichzeitig	-9.41029
▁Vorschriften	-9.41032
▁civil	-9.4106
▁Möglichkeiten	-9.41106
▁foreign	-9.41181
▁short	-9.41355
▁geführt	-9.41508
▁seen	-9.41615
▁several	-9.41644
▁gebracht	-9.4171
▁transparency	-9.4173
▁Man	-9.42412
▁benefit	-9.42571
▁Our	-9.42598
▁contribution	-9.42713
i	-9.42725
▁relation	-9.42756
▁pay	-9.42797
▁apply	-9.42807
▁statt	-9.42984
▁addition	-9.43011
▁Beitritt	-9.43015
▁Seite	-9.43244
▁4	-9.43245
▁Bürgern	-9.43282
▁Binnenmarkt	-9.43359
▁markets	-9.43539
▁business	-9.43602
▁upon	-9.43605
▁response	-9.43643
FR	-9.43735
▁population	-9.43904
politik	-9.44102
▁Bildung	-9.44114
▁tomorrow	-9.44124
▁verbessern	-9.44124
▁wohl	-9.44182
▁makes	-9.4424
▁Kampf	-9.44252
▁comes	-9.44261
ungen	-9.4429
▁bestehen	-9.44503
▁discussion	-9.44681
▁macht	-9.44833
▁Entscheidungen	-9.44838
▁technical	-9.45021
▁speak	-9.45053
▁communication	-9.45064
▁morgen	-9.45124
▁Therefore	-9.45206
▁share	-9.45312
▁practice	-9.45334
▁Personen	-9.4539
▁Secondly	-9.45521
▁answer	-9.45552
▁mind	-9.45563
▁move	-9.4572
▁nutzen	-9.4582
▁him	-9.4591
▁actions	-9.45955
▁zunächst	-9.46172
▁adopt	-9.46207
▁wenig	-9.46292
▁investment	-9.46801
▁angesichts	-9.46821
▁September	-9.46891
▁criteria	-9.47112
▁values	-9.47152
▁unserem	-9.47304
▁Zweitens	-9.4738
▁colleagues	-9.47455
▁hatten	-9.47479
▁existing	-9.47645
▁seems	-9.47648
▁Ergebnisse	-9.47689
▁Außerdem	-9.47721
▁provisions	-9.47726
5	-9.478
▁Be	-9.4785
▁voting	-9.47871
▁Bank	-9.47911
ers	-9.47965
▁setzen	-9.47969
term	-9.48003
▁p	-9.48082
▁One	-9.48113
▁Hinsicht	-9.48192
▁Angelegenheit	-9.48258
▁pleased	-9.48324
▁etwa	-9.48637
▁Themen	-9.48642
▁elections	-9.48851
▁protect	-9.48912
▁jeden	-9.48991
▁accession	-9.49012
ation	-9.49015
▁land	-9.49137
▁stimmen	-9.49168
▁procedures	-9.4925
▁fordern	-9.49377
▁assistance	-9.49414
▁Ausschuß	-9.49446
▁fest	-9.4945
▁stability	-9.49665
▁ourselves	-9.49689
▁private	-9.49735
▁Punkte	-9.4978
▁terrorism	-9.49797
▁Terrorismus	-9.49869
▁soon	-9.49969
verständlich	-9.50038
or	-9.50104
▁service	-9.5025
▁changes	-9.50289
▁wobei	-9.50302
▁violence	-9.50529
▁balance	-9.5062
▁2004	-9.50671
▁Nationen	-9.50677
bzw	-9.50717
▁reduce	-9.50786
▁Gefahr	-9.50804
▁Freiheit	-9.50816
▁express	-9.50827
▁Information	-9.50835
▁cohesion	-9.50881
▁Hier	-9.51081
▁beitragen	-9.51154
▁basic	-9.51158
▁unterschiedlich	-9.51207
▁creation	-9.51227
▁arbeiten	-9.51338
▁Bestimmungen	-9.51526
▁seinem	-9.51535
▁until	-9.51574
sverfahren	-9.51595
▁Sitzung	-9.51741
▁Bemühungen	-9.51774
▁off	-9.51807
▁crucial	-9.51871
▁poverty	-9.51879
▁success	-9.51972
▁develop	-9.52247
▁Verwaltung	-9.52248
▁carried	-9.52272
▁findet	-9.52287
▁everyone	-9.523
▁illegal	-9.5244
▁never	-9.52481
▁sense	-9.52481
▁Daten	-9.52495
▁sagte	-9.52537
▁geschlossen	-9.52556
▁Zeitpunkt	-9.52565
▁saying	-9.52802
▁fair	-9.52816
ualität	-9.52964
▁statement	-9.52969
▁Russland	-9.53042
▁Iran	-9.53072
▁asked	-9.53243
▁cultural	-9.5326
▁getan	-9.53303
▁Aufmerksamkeit	-9.53396
▁draw	-9.53399
▁tabled	-9.53543
▁farmers	-9.53578
▁fishing	-9.53641
▁organisations	-9.53648
▁consequences	-9.53703
▁November	-9.53707
▁Dinge	-9.53846
▁großer	-9.53933
▁held	-9.54026
▁military	-9.5411
▁Angelegenheiten	-9.54233
▁Finanz	-9.54277
▁leisten	-9.54282
▁regulations	-9.54317
ic	-9.54408
▁item	-9.54414
g	-9.54451
ity	-9.54458
der	-9.54499
▁zurück	-9.5455
▁Kultur	-9.54572
▁show	-9.54636
▁bitte	-9.54696
▁Lebensmittel	-9.54724
▁rule	-9.54801
▁solchen	-9.54816
▁application	-9.5483
▁request	-9.5501
▁term	-9.5511
▁1999	-9.55225
▁increased	-9.55238
▁bisher	-9.55276
▁meisten	-9.55313
▁relating	-9.55391
▁voll	-9.55434
▁namely	-9.55562
▁Ukraine	-9.55641
▁increasing	-9.5565
▁internationale	-9.55683
▁vorgeschlagen	-9.55705
▁bestimmte	-9.55822
▁ge	-9.55829
▁ermöglichen	-9.55912
▁training	-9.56038
▁lediglich	-9.56103
▁close	-9.56125
▁vergangenen	-9.56212
▁keep	-9.56303
▁Mal	-9.56308
▁equal	-9.56498
S	-9.56552
▁berücksichtigt	-9.56603
▁Tat	-9.56667
▁obwohl	-9.56719
▁sorgen	-9.56769
4	-9.56787
8	-9.56849
▁cost	-9.56882
▁vorgelegt	-9.56892
▁Frieden	-9.56895
▁leider	-9.57023
▁required	-9.57093
▁job	-9.57199
▁presented	-9.57273
▁pro	-9.57363
▁Doch	-9.57378
▁requirements	-9.57448
ste	-9.57453
▁Party	-9.57494
▁opportunities	-9.57504
▁wichtiger	-9.57546
▁everything	-9.57653
▁meet	-9.57657
▁He	-9.577
▁Un	-9.57877
▁value	-9.57922
▁Thank	-9.57933
▁Erstens	-9.5794
▁closed	-9.5798
le	-9.58017
sicherheit	-9.58149
▁face	-9.58185
▁stage	-9.58289
▁11	-9.5829
▁Ansatz	-9.58457
▁thus	-9.5848
▁budgetary	-9.58608
▁eigentlich	-9.58637
▁Gründen	-9.58803
▁Dieses	-9.58807
▁instruments	-9.58836
H	-9.58879
▁When	-9.58885
▁bleibt	-9.5907
ver	-9.59107
▁throughout	-9.59238
▁erster	-9.59269
▁Arbeitsplätze	-9.59299
▁Damit	-9.59389
▁week	-9.59449
▁priorities	-9.59479
▁Präsidenten	-9.59531
ig	-9.59607
lich	-9.59703
▁danke	-9.59706
▁Investitionen	-9.59763
▁bezüglich	-9.59774
▁nature	-9.59795
▁unseres	-9.60085
to	-9.60161
▁Landes	-9.6034
▁either	-9.60433
▁zeigt	-9.60448
u	-9.60582
▁mention	-9.6066
▁external	-9.6073
▁Annahme	-9.60826
▁Sache	-9.60839
▁Aspekte	-9.60939
▁fast	-9.61059
▁hinweisen	-9.6109
▁schnell	-9.6113
▁lange	-9.6114
▁begrüßen	-9.6119
▁around	-9.6122
▁helfen	-9.61277
▁called	-9.61406
▁zweite	-9.61436
▁tragen	-9.61502
▁2005	-9.61592
▁genommen	-9.6161
▁demand	-9.61662
▁Wachstum	-9.617
▁tell	-9.61999
▁Uhr	-9.62005
▁Portugal	-9.62051
▁Anstrengungen	-9.62135
▁2009	-9.62141
EN	-9.62234
▁road	-9.62378
▁Zahl	-9.62591
▁decided	-9.62732
▁pressure	-9.62792
▁she	-9.62832
▁community	-9.62857
▁Fund	-9.62872
▁initiatives	-9.62901
▁Agenda	-9.62972
▁Mitglied	-9.63052
▁weiteren	-9.63089
▁times	-9.63157
▁task	-9.63199
▁implement	-9.63469
▁hätten	-9.63483
▁direction	-9.63491
▁conflict	-9.63656
▁instrument	-9.63734
▁stand	-9.63807
▁Instrument	-9.63823
▁previous	-9.63873
▁movement	-9.63884
▁prepared	-9.64009
▁Ab	-9.64156
▁waste	-9.64202
▁reached	-9.6435
ffentlichkeit	-9.64454
▁across	-9.64473
▁Verpflichtungen	-9.64474
▁review	-9.64494
▁five	-9.64539
▁potential	-9.64584
▁Armut	-9.64669
▁Darüber	-9.64834
▁Grenzen	-9.64876
▁address	-9.649
▁6	-9.64942
▁fisheries	-9.65127
▁per	-9.65148
▁reading	-9.65176
▁Zum	-9.65201
▁powers	-9.65311
▁enthalten	-9.65338
▁talking	-9.65345
▁Mitteilung	-9.65415
▁geschaffen	-9.65547
▁Vertrags	-9.65582
▁four	-9.65682
▁vital	-9.65739
▁führt	-9.65769
▁folgt	-9.65814
▁monitoring	-9.65818
▁expressed	-9.65856
▁darstellt	-9.65857
▁using	-9.65867
▁Abschließend	-9.66011
▁bekannt	-9.66051
▁ergreifen	-9.66053
▁18	-9.66061
▁raised	-9.6611
▁light	-9.66183
▁öffentliche	-9.66221
▁relevant	-9.66273
▁conclusion	-9.66381
▁establish	-9.66435
▁water	-9.66438
▁eindeutig	-9.66505
▁Opfer	-9.66547
▁Änderungen	-9.66658
▁vier	-9.66676
▁Nr	-9.66714
▁behandelt	-9.66827
▁focus	-9.66888
▁doubt	-9.6689
▁2020	-9.66959
▁Regeln	-9.67043
th	-9.6709
▁Kompromiss	-9.67122
▁dringend	-9.67127
▁implemented	-9.67165
▁Schwierigkeiten	-9.6717
▁erinnern	-9.67202
▁effort	-9.67312
▁stimme	-9.6734
▁France	-9.67455
▁medium	-9.67616
▁berücksichtigen	-9.67619
▁27	-9.6768
▁Druck	-9.67839
▁experience	-9.6788
▁Durchführung	-9.68033
▁Prozess	-9.68048
▁Woche	-9.68064
▁gar	-9.68077
▁justice	-9.68156
▁Abgeordnete	-9.68186
▁wegen	-9.68194
▁versuchen	-9.68303
▁included	-9.68456
▁try	-9.68533
▁schließlich	-9.6858
▁challenges	-9.68582
z	-9.68626
▁Position	-9.68634
▁fellow	-9.68754
▁Vertreter	-9.68761
▁Mitgliedstaat	-9.68858
7	-9.6889
▁quickly	-9.68918
▁Haushalts	-9.6892
▁demokratischen	-9.68964
▁Ireland	-9.68986
▁40	-9.69
w	-9.69009
▁Lassen	-9.69045
▁Rechts	-9.69131
it	-9.6914
▁Organisation	-9.69181
▁crime	-9.69186
▁established	-9.69226
▁victims	-9.69227
▁Amsterdam	-9.69317
▁found	-9.69414
PL	-9.6951
▁vertreten	-9.6951
▁kurz	-9.69522
▁enable	-9.69555
▁levels	-9.69675
▁billion	-9.69749
▁Development	-9.69919
▁2002	-9.69923
▁recently	-9.69964
able	-9.69987
▁absolutely	-9.70009
▁zeigen	-9.7011
▁partners	-9.70148
▁ever	-9.70261
ischen	-9.70326
▁Vertrauen	-9.70344
▁aufgenommen	-9.70376
▁oft	-9.70448
▁Protokoll	-9.70461
santrag	-9.70474
ern	-9.7066
▁mein	-9.70677
▁talk	-9.70677
▁Tag	-9.70678
▁möchten	-9.70696
▁coming	-9.70714
▁reduction	-9.70738
▁agriculture	-9.70773
schutz	-9.7085
▁verhindern	-9.70877
▁Conference	-9.70921
▁borders	-9.70962
▁fünf	-9.7099
▁Nicht	-9.71091
▁immigration	-9.71143
▁reality	-9.71339
▁gab	-9.71426
▁Sinne	-9.71651
▁erneut	-9.71785
ieren	-9.71807
▁Haltung	-9.71837
▁effects	-9.72004
▁package	-9.72046
▁Anerkennung	-9.72068
▁supported	-9.72077
▁2003	-9.72129
▁gemäß	-9.72177
▁2007	-9.72224
▁Gesetzgebung	-9.72314
▁outside	-9.72317
▁8	-9.72336
▁Kraft	-9.72339
▁anti	-9.72358
▁completely	-9.72408
up	-9.72453
▁amount	-9.7247
▁2006	-9.72546
▁live	-9.72567
▁P	-9.72586
▁betonen	-9.72901
▁document	-9.72917
▁structural	-9.73
▁Republik	-9.73054
▁thanks	-9.73238
▁sectors	-9.73239
▁brought	-9.73273
▁Zunächst	-9.73363
▁vergessen	-9.73424
▁reforms	-9.73451
▁Sicht	-9.73551
▁scheint	-9.73667
▁price	-9.73696
1	-9.73724
▁Kriterien	-9.73862
3	-9.73989
▁giving	-9.74003
▁International	-9.74007
▁Parteien	-9.74012
▁Stellungnahme	-9.74057
▁direct	-9.74248
▁gesamte	-9.74291
▁endlich	-9.7443
us	-9.74459
▁2001	-9.74468
▁konkrete	-9.74532
sch	-9.74642
▁bessere	-9.74714
▁Staat	-9.74828
▁French	-9.74846
▁finally	-9.74879
▁Stabilität	-9.74886
▁reach	-9.74898
▁presidency	-9.74969
▁diejenigen	-9.75011
▁spielen	-9.75021
▁extent	-9.75062
▁left	-9.75062
▁liegen	-9.75103
▁treatment	-9.75127
▁cause	-9.75133
▁unemployment	-9.75185
▁Gemeinsamen	-9.75246
▁approved	-9.75352
▁K	-9.75462
▁Unsere	-9.75543
▁received	-9.75642
▁Lesung	-9.75665
▁along	-9.75668
▁businesses	-9.75676
▁Republic	-9.75696
▁kleinen	-9.75702
▁gleichen	-9.75766
▁encourage	-9.75772
▁zumindest	-9.75836
▁Monaten	-9.75871
▁leben	-9.7591
▁motion	-9.75947
▁applied	-9.75976
▁dadurch	-9.76043
▁additional	-9.76046
▁possibility	-9.76054
▁negative	-9.76084
▁April	-9.76132
▁Wahlen	-9.76141
Geschäftsordnung	-9.76209
▁stress	-9.76211
▁follow	-9.76251
▁Handels	-9.76341
▁wichtigsten	-9.76342
▁list	-9.76396
▁almost	-9.76397
▁Firstly	-9.76427
▁model	-9.76463
▁weder	-9.76513
▁took	-9.76516
▁sitting	-9.76554
▁British	-9.76565
▁Einigung	-9.76587
▁representatives	-9.76625
▁air	-9.76854
▁Forderung	-9.76881
▁Nations	-9.76884
▁7	-9.76885
▁Schengen	-9.76896
▁heard	-9.76925
▁Africa	-9.76987
▁versucht	-9.77057
▁allein	-9.77097
▁Regelung	-9.77161
▁behind	-9.77283
▁natural	-9.77418
▁coordination	-9.77419
▁Vereinbarung	-9.77483
▁administrative	-9.77492
▁Unter	-9.77497
▁1.	-9.77562
Dienstleistungen	-9.7763
▁care	-9.77643
zu	-9.77648
▁December	-9.77656
▁gefordert	-9.7769
▁Konferenz	-9.77695
▁discussed	-9.7772
▁ziehen	-9.77728
▁Sektor	-9.77752
▁überhaupt	-9.77774
▁einschließlich	-9.778
▁umgesetzt	-9.77878
▁add	-9.77882
▁Of	-9.77896
▁1998	-9.77914
▁ensuring	-9.77926
▁anderer	-9.78016
▁freue	-9.78105
▁away	-9.78239
▁competitiveness	-9.78264
▁assessment	-9.78405
▁nor	-9.78426
▁East	-9.7854
▁prices	-9.78548
▁bekommen	-9.78585
▁Furthermore	-9.78595
▁discuss	-9.78598
▁13	-9.7863
▁Dezember	-9.78659
▁lot	-9.78686
▁entwickeln	-9.78817
▁cross	-9.78819
▁guten	-9.78847
▁living	-9.78963
▁creating	-9.79143
▁offer	-9.79198
▁sicherzustellen	-9.79205
▁practical	-9.79236
▁turn	-9.7924
▁14	-9.79309
▁emissions	-9.7932
▁Stelle	-9.79389
▁begin	-9.79415
▁2010	-9.79429
▁strengthen	-9.79435
▁adoption	-9.79556
▁ermöglicht	-9.79607
▁gesprochen	-9.79631
▁Roma	-9.7967
▁avoid	-9.79859
▁Barroso	-9.79898
▁guidelines	-9.80049
▁erwähnt	-9.80057
▁Überwachung	-9.80298
▁erzielt	-9.80317
▁finanziellen	-9.80367
▁events	-9.80434
▁Prioritäten	-9.80488
▁parliamentary	-9.80518
▁Anfrage	-9.80563
▁total	-9.80583
▁rate	-9.80622
▁discussions	-9.80635
▁100	-9.80746
▁stop	-9.8078
▁überzeugt	-9.80858
▁bestimmten	-9.80868
▁May	-9.80967
▁proper	-9.81071
▁enthält	-9.81104
▁einzige	-9.81128
▁Ressourcen	-9.81146
▁capacity	-9.81176
▁unterstütze	-9.81178
▁Ihrer	-9.81215
▁Vereinte	-9.81231
▁confidence	-9.81267
▁festgelegt	-9.81326
ion	-9.81328
▁Belarus	-9.81439
▁Verwendung	-9.81451
▁eben	-9.81515
▁expect	-9.81551
▁Natürlich	-9.81629
▁Antrag	-9.81689
▁schützen	-9.81695
▁Selbst	-9.81726
▁note	-9.81776
▁treffen	-9.8187
▁Transport	-9.81905
iert	-9.81997
▁Macht	-9.82093
▁außerdem	-9.82125
▁akzeptieren	-9.82127
▁Reformen	-9.8214
▁unacceptable	-9.82141
▁recht	-9.82232
▁remains	-9.82355
▁gewesen	-9.82376
▁Economic	-9.82756
▁knowledge	-9.82846
▁bitten	-9.82862
▁h	-9.8288
▁Währung	-9.82891
▁Afghanistan	-9.82923
▁Seiten	-9.82925
▁Initiativen	-9.82964
▁humanitarian	-9.82973
▁z	-9.82979
▁scope	-9.83023
▁Zustimmung	-9.83057
▁men	-9.83234
▁erwarten	-9.83242
▁affected	-9.83285
▁considered	-9.83306
▁Ratspräsident	-9.834
▁Agreement	-9.83656
▁six	-9.83724
▁asylum	-9.83777
▁criminal	-9.83794
▁größere	-9.83854
▁Partnerschaft	-9.83963
▁World	-9.83996
▁konnte	-9.84002
▁stärker	-9.84022
▁days	-9.84051
▁D	-9.84064
▁NATO	-9.84072
▁side	-9.8413
▁family	-9.84364
▁Central	-9.84385
▁PPE	-9.84413
▁Werte	-9.84442
▁despite	-9.84453
▁discrimination	-9.845
▁De	-9.84534
▁old	-9.84613
▁capital	-9.84709
4-	-9.84729
▁Meiner	-9.84798
▁Democrats	-9.84822
▁carry	-9.84947
▁getroffen	-9.84949
industrie	-9.84989
▁zweiten	-9.85027
PT	-9.85029
▁Fällen	-9.85087
▁aimed	-9.85112
▁unbedingt	-9.8513
▁hard	-9.85157
▁2008	-9.85157
▁angesprochen	-9.85163
▁geleistet	-9.85315
▁difficulties	-9.85344
▁trying	-9.85402
▁precisely	-9.8542
▁bewusst	-9.8553
▁contribute	-9.85625
▁beschlossen	-9.85646
▁return	-9.85684
▁solutions	-9.85689
▁effectively	-9.85713
▁summit	-9.85727
▁eingehen	-9.85741
ist	-9.85745
▁Koordinierung	-9.8579
▁Frankreich	-9.85795
▁First	-9.85803
um	-9.85833
▁stark	-9.85849
▁takes	-9.85853
▁institutional	-9.86018
▁connection	-9.86038
▁prüfen	-9.86042
▁16	-9.86078
▁Achtung	-9.86082
▁developed	-9.861
▁Berichte	-9.86125
▁regime	-9.86375
▁Hand	-9.86379
▁neuer	-9.86395
▁reference	-9.86402
▁dealing	-9.86411
▁genannten	-9.86425
▁jedem	-9.86482
▁defence	-9.86502
▁goods	-9.86534
▁instead	-9.86594
▁efficiency	-9.86603
▁geworden	-9.86802
▁June	-9.86803
▁Grundsatz	-9.86825
▁Dabei	-9.86838
▁Wahl	-9.8685
ter	-9.86853
ar	-9.86889
▁vorgesehen	-9.86907
▁honourable	-9.86944
▁accordance	-9.86959
gesellschaft	-9.86999
▁Vielen	-9.87128
▁ban	-9.87171
▁Produktion	-9.87173
9	-9.87227
▁Kenntnis	-9.87256
▁sieht	-9.87332
▁shown	-9.87441
▁Policy	-9.87516
▁Diskriminierung	-9.87548
▁People	-9.87551
▁remind	-9.8773
▁insgesamt	-9.87744
▁richtige	-9.87754
▁circumstances	-9.87865
▁Schließlich	-9.87866
▁1997	-9.87913
▁partnership	-9.87927
▁beginning	-9.87972
F	-9.88013
▁17	-9.88062
▁Nutzung	-9.88086
ness	-9.88102
▁Sozial	-9.88125
▁oil	-9.88167
▁Regulation	-9.88197
▁Allerdings	-9.882
▁date	-9.88222
▁message	-9.88334
▁warum	-9.88356
▁jedes	-9.88427
▁Justice	-9.88553
▁Behandlung	-9.88558
▁personal	-9.88559
▁verstehen	-9.88649
▁Rede	-9.8865
▁hingewiesen	-9.88659
no	-9.88688
▁Germany	-9.88695
at	-9.88696
▁huge	-9.8875
ne	-9.88754
▁hoffen	-9.88767
I	-9.88794
▁improving	-9.89119
▁combat	-9.89141
▁culture	-9.89215
▁Stärkung	-9.89297
▁technology	-9.89319
▁challenge	-9.89337
▁according	-9.89397
▁T	-9.89426
▁active	-9.89508
▁created	-9.89558
▁Bereiche	-9.89616
▁diskutieren	-9.89653
▁gelten	-9.89656
▁status	-9.89722
T	-9.8974
▁speech	-9.89761
▁Partei	-9.89782
▁Durch	-9.8982
▁allowed	-9.89846
▁nationale	-9.89871
▁Anfang	-9.89977
▁propose	-9.90003
▁Ausgaben	-9.90018
▁bestehenden	-9.90081
▁committed	-9.90101
▁innovation	-9.90142
▁enterprises	-9.90204
▁heutigen	-9.90247
▁consideration	-9.9034
▁zehn	-9.90348
▁Human	-9.90363
▁goes	-9.90452
▁erfüllen	-9.9046
▁half	-9.90489
▁sicherlich	-9.9051
▁minimum	-9.90514
▁Einsatz	-9.9052
▁durchgeführt	-9.90596
▁Instrumente	-9.90615
▁providing	-9.90622
▁klare	-9.90694
▁Liberalisierung	-9.90695
▁conclusions	-9.90708
▁comments	-9.90717
▁content	-9.90742
▁central	-9.90942
is	-9.91013
ü	-9.91025
▁forces	-9.91058
▁self	-9.91072
M	-9.91089
▁Absatz	-9.9113
▁duty	-9.91146
▁allgemeinen	-9.91195
▁provision	-9.91209
▁Beihilfen	-9.91256
▁Social	-9.91267
▁Steuer	-9.91346
IT	-9.91362
▁Linie	-9.91393
▁Now	-9.91414
▁supply	-9.91441
▁independent	-9.91472
▁participation	-9.91473
ische	-9.91504
▁purpose	-9.91578
▁Innovation	-9.91611
▁death	-9.91783
▁Juni	-9.91801
ch	-9.91876
▁rural	-9.91892
▁benefits	-9.91922
▁Zweifel	-9.91926
▁accepted	-9.91965
▁somit	-9.91965
▁Sorge	-9.91978
▁rightly	-9.91987
▁Verkehr	-9.92037
▁Aspekt	-9.92072
▁Verpflichtung	-9.92109
▁considerable	-9.92255
▁successful	-9.92283
▁erklärt	-9.923
▁co	-9.92374
▁German	-9.92416
▁19	-9.92427
▁receive	-9.92474
▁implementing	-9.92661
▁finanzielle	-9.92983
▁gehören	-9.93003
▁Deutschland	-9.93123
▁Brussels	-9.93133
▁referred	-9.93143
▁Organisationen	-9.93193
schaftlichen	-9.93223
▁provides	-9.93268
▁stated	-9.93289
▁verpflichtet	-9.93345
European	-9.93412
▁Lösungen	-9.93437
on	-9.93462
▁Aufgaben	-9.93517
▁konnten	-9.93617
▁Mai	-9.93669
▁Verteidigung	-9.93724
▁Brüssel	-9.93781
▁Geschichte	-9.93827
▁calls	-9.93892
▁transparent	-9.93899
▁colleague	-9.94009
▁Folge	-9.94059
▁media	-9.94085
▁feststellen	-9.94129
▁specifically	-9.94207
▁ECU	-9.94303
▁besondere	-9.94304
▁unfortunately	-9.94378
▁Fraktionen	-9.94452
▁promoting	-9.94481
▁seriously	-9.94484
▁lives	-9.94493
▁Gipfel	-9.94546
▁entscheiden	-9.94618
▁Re	-9.94633
▁Praxis	-9.9465
▁alternative	-9.94739
▁entschieden	-9.94753
▁forms	-9.94779
▁scientific	-9.94862
▁Fortschritt	-9.9498
▁ändern	-9.95007
▁overall	-9.95014
▁gleich	-9.9511
▁H	-9.95227
▁closely	-9.95243
▁inter	-9.95274
▁lösen	-9.95289
▁decide	-9.95329
▁trotz	-9.95402
▁erzielen	-9.95422
▁exchange	-9.95431
▁jede	-9.95446
▁gezeigt	-9.95536
▁offensichtlich	-9.95593
The	-9.95668
▁gegenwärtig	-9.95802
▁beyond	-9.9582
▁urgent	-9.96018
▁Vergangenheit	-9.96029
▁Fonds	-9.96074
▁liebe	-9.96088
▁vorliegenden	-9.96161
▁Produkte	-9.96248
▁respond	-9.96274
▁introduction	-9.96277
land	-9.96283
▁complete	-9.96332
▁stärken	-9.96334
▁entsprechenden	-9.96413
▁industrial	-9.96431
▁ganze	-9.96432
▁L	-9.96484
ul	-9.96576
▁Aufnahme	-9.9658
▁Volk	-9.96675
▁plans	-9.96693
▁Projekt	-9.96696
▁Familien	-9.96715
ive	-9.96745
▁Mediterranean	-9.96774
▁9	-9.96819
▁Irak	-9.96992
▁happen	-9.96995
▁wanted	-9.97008
▁wrong	-9.97011
▁offen	-9.97164
▁bietet	-9.97235
▁directly	-9.97334
▁expenditure	-9.97563
▁measure	-9.97602
▁befinden	-9.97602
▁notwendigen	-9.97642
▁eingesetzt	-9.97645
▁wesentlich	-9.97655
C	-9.97663
▁strategic	-9.97733
▁Entwurf	-9.97804
▁leave	-9.9786
▁Erklärungen	-9.97962
▁handeln	-9.98013
▁Worte	-9.98026
▁Beginn	-9.98047
▁Grundrechte	-9.98074
▁views	-9.98118
▁Abschluss	-9.98131
▁steps	-9.98135
▁produce	-9.98156
▁regret	-9.98356
▁vorgeschlagenen	-9.98364
il	-9.98382
▁financing	-9.98394
▁Projekte	-9.98398
▁Today	-9.984
▁Constitution	-9.98519
sized	-9.9852
ism	-9.98638
▁How	-9.98748
Arbeitslosigkeit	-9.98862
▁21	-9.98888
▁bieten	-9.98897
▁history	-9.98925
▁Priorität	-9.98926
▁Einhaltung	-9.98953
▁requires	-9.98986
▁Ausbildung	-9.99006
▁Iraq	-9.99042
▁maintain	-9.99042
▁police	-9.99082
▁CO	-9.9912
▁Über	-9.99215
▁exist	-9.9929
▁home	-9.99293
▁Denn	-9.99329
▁gas	-9.99373
▁schwer	-9.99374
▁Ort	-9.99426
▁equality	-9.99447
▁Prodi	-9.99516
▁Heute	-9.99535
▁January	-9.99592
▁eher	-9.99666
▁setting	-9.99667
▁intended	-9.99688
▁commitments	-9.9975
▁event	-9.99788
▁Greece	-9.99929
▁darstellen	-10.0003
▁myself	-10.0025
▁activity	-10.0025
ent	-10.005
▁Bewertung	-10.0051
▁hinter	-10.0058
▁Ja	-10.0059
▁gesehen	-10.0062
▁product	-10.0064
▁sechs	-10.0065
▁Strukturfonds	-10.007
▁party	-10.0072
▁Summit	-10.0076
▁demands	-10.0077
▁II	-10.0082
▁aspect	-10.0087
ur	-10.0095
▁Gebieten	-10.0099
▁Irish	-10.0116
▁Gesundheits	-10.0118
▁refer	-10.0119
▁paid	-10.012
▁competitive	-10.012
▁übernehmen	-10.0124
▁animal	-10.0129
▁Beteiligung	-10.013
▁sufficient	-10.0131
▁join	-10.0136
▁fund	-10.0138
▁paragraph	-10.014
▁Irland	-10.0148
D	-10.0152
▁Nun	-10.0153
▁similar	-10.0153
▁Aktivitäten	-10.0156
▁entire	-10.0157
▁Informations	-10.0157
▁geschehen	-10.0163
▁poor	-10.0163
as	-10.0167
▁alone	-10.0171
▁ten	-10.0175
▁1996	-10.0176
▁kommenden	-10.0183
▁low	-10.0183
▁supporting	-10.0184
▁dagegen	-10.0187
▁rest	-10.0193
▁Wochen	-10.0194
▁Tätigkeit	-10.02
▁bodies	-10.0223
▁Einwanderung	-10.0223
▁Augen	-10.0235
▁Milliarden	-10.0242
▁Stimme	-10.0245
▁anything	-10.0245
ab	-10.0252
▁speaking	-10.0259
▁represent	-10.0261
▁besten	-10.0265
▁verfügen	-10.0268
▁outcome	-10.0274
▁efficient	-10.0277
▁properly	-10.028
▁origin	-10.0282
▁Regelungen	-10.0286
▁60	-10.0289
▁letzte	-10.029
▁yesterday	-10.0292
▁stets	-10.0315
▁Einrichtung	-10.0319
▁opposition	-10.0323
▁gerne	-10.0324
▁hoch	-10.0325
▁Not	-10.0326
▁Schritte	-10.0331
▁durchaus	-10.0337
▁conclude	-10.0339
▁aufmerksam	-10.0341
▁Kollege	-10.0344
▁Minutes	-10.035
▁led	-10.0356
▁rise	-10.0359
▁Januar	-10.0364
▁Von	-10.0364
▁nimmt	-10.0365
▁Dennoch	-10.038
▁Rules	-10.0387
▁beginnen	-10.0402
▁positiv	-10.0402
▁Globalisierung	-10.0407
▁Minderheiten	-10.0411
▁type	-10.0412
▁Although	-10.0417
▁discussing	-10.042
▁ways	-10.042
▁border	-10.0421
▁konzentrieren	-10.0424
▁caused	-10.0426
▁remember	-10.0429
▁Wasser	-10.0429
▁highly	-10.0438
▁limited	-10.0439
▁authority	-10.0446
▁establishing	-10.0457
▁South	-10.0458
▁verbessert	-10.046
sektor	-10.046
▁calling	-10.0464
▁higher	-10.047
▁genug	-10.0471
▁comment	-10.0476
▁Medien	-10.0479
▁Falle	-10.048
▁genuine	-10.048
▁R	-10.0481
▁ambitious	-10.0491
▁glauben	-10.0493
▁shows	-10.0496
▁Chance	-10.05
▁Haupt	-10.0508
▁fragen	-10.0514
▁gekommen	-10.052
▁study	-10.052
▁weeks	-10.0522
▁Angesicht	-10.0544
smaßnahmen	-10.0546
▁Unfortunately	-10.0556
▁häufig	-10.0563
▁whom	-10.0564
P	-10.0565
▁Verbindung	-10.0567
▁ihres	-10.0578
▁Preis	-10.0579
▁Dazu	-10.0579
▁known	-10.058
▁unternehmen	-10.058
▁early	-10.0584
▁Engagement	-10.0584
▁Security	-10.0588
▁improved	-10.0589
▁grenzüberschrei	-10.0589
▁bevor	-10.0595
▁increasingly	-10.0614
▁urge	-10.0618
▁represents	-10.0628
▁hold	-10.0639
▁producers	-10.0639
▁gesetzt	-10.0649
▁press	-10.0653
▁useful	-10.0656
▁gegenwärtigen	-10.0657
▁verantwortlich	-10.0666
▁happened	-10.0678
▁gefunden	-10.0679
▁Forderungen	-10.0685
▁candidate	-10.0686
▁Since	-10.0687
▁emphasise	-10.0702
▁Überprüfung	-10.0702
▁entsprechend	-10.0702
▁produced	-10.0702
▁March	-10.0703
▁spirit	-10.0703
▁obviously	-10.0724
▁infrastructure	-10.0725
▁achieving	-10.0725
▁erfüllt	-10.0726
▁limit	-10.0738
▁threat	-10.0749
▁strengthening	-10.0749
▁animals	-10.0752
▁entsprechende	-10.0756
▁language	-10.0758
▁met	-10.0759
▁Am	-10.0762
▁bringt	-10.0768
▁currency	-10.077
▁wären	-10.0772
▁Raum	-10.0772
▁risks	-10.0782
▁hear	-10.0782
▁zustimmen	-10.0784
▁weltweit	-10.0798
▁require	-10.0803
ner	-10.0807
called	-10.0808
border	-10.0808
▁außerhalb	-10.0816
est	-10.0817
▁reducing	-10.0817
▁gleiche	-10.0825
▁Italy	-10.0826
▁later	-10.0826
▁Maße	-10.083
▁annual	-10.0841
▁manner	-10.0842
▁Spanish	-10.0845
▁Green	-10.0851
▁influence	-10.086
▁gives	-10.0867
▁festgestellt	-10.0867
skonferenz	-10.0878
▁name	-10.0884
▁neu	-10.0887
▁Europäer	-10.0892
▁General	-10.0892
▁broad	-10.0896
▁concept	-10.0907
▁Plan	-10.0907
▁März	-10.0912
▁verfolgen	-10.0912
▁thought	-10.0914
making	-10.0926
ES	-10.0926
▁damage	-10.0928
ment	-10.0943
▁establishment	-10.0945
▁nie	-10.0949
▁Justiz	-10.0955
▁looking	-10.0961
▁statements	-10.0978
▁conference	-10.0979
▁Leitlinien	-10.0979
▁cut	-10.0981
▁diskutiert	-10.0982
▁aims	-10.0985
▁Moreover	-10.0986
im	-10.0987
NL	-10.0988
O	-10.0995
▁convinced	-10.0996
▁Foreign	-10.1002
▁gemein	-10.1005
he	-10.1008
▁Richtlinien	-10.1018
▁übrigen	-10.1021
▁earlier	-10.1024
▁Empfehlungen	-10.103
▁Leider	-10.1031
▁verfolgt	-10.1033
▁Gleichzeitig	-10.1043
▁Rechnung	-10.1044
responsibilities	-10.1046
▁gewisse	-10.1048
the	-10.1053
▁sometimes	-10.1057
▁recognise	-10.1065
▁ergriffen	-10.1068
▁former	-10.1076
▁developments	-10.1084
▁schwierig	-10.1089
▁Delegation	-10.1093
▁Ratsvorsitz	-10.1096
▁monetary	-10.1099
ling	-10.1102
▁gerecht	-10.1111
▁Dimension	-10.1113
▁firstly	-10.1114
▁elements	-10.1122
▁commercial	-10.1127
▁verschiedene	-10.1127
▁vermeiden	-10.1134
ein	-10.1137
▁ganzen	-10.1152
▁trust	-10.1154
▁member	-10.1157
▁zahlreiche	-10.1164
▁prevention	-10.1167
▁acceptable	-10.1171
▁analysis	-10.1174
▁Natur	-10.1175
▁Agrarpolitik	-10.1181
▁contrary	-10.1183
▁Grunde	-10.1186
▁introduce	-10.1193
▁demokratische	-10.1193
▁word	-10.12
sabkommen	-10.1203
▁Landwirte	-10.1204
▁entirely	-10.1206
▁recognition	-10.1207
▁Völker	-10.1213
▁building	-10.1213
▁Osten	-10.122
▁dangerous	-10.1221
▁betont	-10.1223
▁balanced	-10.1233
▁betroffenen	-10.1242
▁direkt	-10.1243
▁freien	-10.1243
▁80	-10.1258
▁American	-10.1259
▁reduced	-10.1261
isation	-10.1263
▁anderem	-10.1264
▁Harmonisierung	-10.1268
▁liberalisation	-10.127
▁Spain	-10.1272
▁introduced	-10.1272
▁gewährleistet	-10.1284
▁absolut	-10.1289
▁combating	-10.129
▁hohen	-10.1293
▁Sprache	-10.13
▁concrete	-10.1302
▁Nevertheless	-10.1304
▁lässt	-10.1304
▁gern	-10.1307
▁thinking	-10.1311
▁comprehensive	-10.1312
E	-10.1315
▁befassen	-10.1316
▁documents	-10.1316
un	-10.1319
▁discharge	-10.132
▁frei	-10.1322
▁delegation	-10.1326
▁network	-10.134
▁consensus	-10.1347
▁facing	-10.1347
unternehmen	-10.1357
▁becoming	-10.1358
▁After	-10.136
▁method	-10.1361
▁union	-10.1364
me	-10.1367
▁sage	-10.1371
▁pointed	-10.1375
▁V	-10.1377
▁möglicherweise	-10.1384
ierung	-10.1405
▁Worten	-10.1407
▁Grundsätze	-10.142
▁sort	-10.1424
▁einsetzen	-10.1425
▁ground	-10.1442
▁America	-10.1442
▁Königreich	-10.1442
▁politischer	-10.1443
▁asking	-10.1461
▁wider	-10.1464
▁wesentlichen	-10.1466
▁Environment	-10.1471
▁nachhaltige	-10.1481
▁Zeitraum	-10.1488
▁Krieg	-10.1492
▁angeht	-10.1496
▁mandate	-10.1496
▁Kooperation	-10.1502
ia	-10.1502
▁sources	-10.1502
▁braucht	-10.1507
▁relationship	-10.1512
▁Ihr	-10.1514
▁added	-10.1514
(	-10.1516
▁Partner	-10.1517
▁unternommen	-10.1517
▁Mitteln	-10.153
▁Wunsch	-10.1537
▁raise	-10.1551
▁erforderlichen	-10.1553
ro	-10.1553
▁probably	-10.1555
▁entwickelt	-10.1561
▁eigene	-10.1562
▁nationaler	-10.1562
▁differences	-10.1566
▁fordert	-10.1574
▁Ministers	-10.1575
▁bald	-10.1577
▁Italian	-10.1581
▁intervention	-10.1583
▁jene	-10.159
▁networks	-10.1591
▁Untersuchung	-10.1591
▁ausdrücklich	-10.1593
▁recommendations	-10.1602
▁Gesetze	-10.161
▁entspricht	-10.1611
▁derzeitigen	-10.1614
▁morning	-10.1615
▁je	-10.1616
▁perspective	-10.1617
▁UK	-10.1618
▁verwendet	-10.162
G	-10.1622
▁außerordentlich	-10.1627
▁Indeed	-10.1629
▁Some	-10.1631
▁Griechenland	-10.1631
▁wants	-10.1634
ö	-10.1635
▁betroffen	-10.1636
▁fall	-10.1637
liche	-10.1648
▁forget	-10.1648
▁Plenum	-10.1653
▁einiger	-10.166
▁Nur	-10.1664
gen	-10.1666
▁flexibility	-10.1669
▁methods	-10.1672
▁else	-10.1676
mo	-10.1679
▁Italien	-10.168
▁geändert	-10.1681
▁größten	-10.1682
▁sound	-10.1684
▁bear	-10.1685
▁correct	-10.1689
▁eingeführt	-10.1695
▁Gründe	-10.171
▁Sch	-10.171
▁body	-10.1716
▁company	-10.1716
▁staff	-10.1718
▁closer	-10.1719
▁applies	-10.1725
▁says	-10.1732
▁strongly	-10.1733
▁refugees	-10.1741
▁organisation	-10.1748
▁laws	-10.175
▁verehrte	-10.1754
▁ländlichen	-10.1755
▁Willen	-10.1757
▁zusätzliche	-10.1758
▁person	-10.1762
▁Drittländern	-10.1768
▁exactly	-10.1773
▁practices	-10.1777
▁BSE	-10.1779
▁sanctions	-10.178
▁wünschen	-10.178
▁Wert	-10.1785
▁Fehler	-10.1786
▁van	-10.179
▁Procedure	-10.1794
▁Bedenken	-10.1795
isch	-10.1795
▁fordere	-10.1796
▁Gegenteil	-10.1803
▁institution	-10.1804
▁pre	-10.1812
▁sicherstellen	-10.1816
▁Empfehlung	-10.1817
▁seek	-10.1827
▁Sanktionen	-10.1828
▁attempt	-10.183
▁chance	-10.183
▁Dokument	-10.1832
▁rapporteurs	-10.1833
▁dienen	-10.1833
▁Festlegung	-10.1834
▁read	-10.1838
▁kleine	-10.1839
ut	-10.1843
▁Höhe	-10.1853
▁Erfahrungen	-10.1853
▁beglückwünschen	-10.1854
▁Inhalt	-10.1861
▁Gebiete	-10.1872
▁parts	-10.1874
organisationen	-10.1877
▁fallen	-10.188
▁Maßnahme	-10.188
▁Wege	-10.1886
▁nochmals	-10.1896
▁Anpassung	-10.1899
▁verbunden	-10.1899
▁Vielfalt	-10.1901
▁größte	-10.1901
▁Prinzip	-10.1903
▁simple	-10.1911
▁MEPs	-10.1912
▁laid	-10.1915
▁opening	-10.1919
▁später	-10.1922
▁build	-10.1935
▁drawn	-10.1937
▁Palestinian	-10.1942
▁erhöhen	-10.1947
▁dimension	-10.1948
▁failure	-10.1951
▁reply	-10.1951
▁gratulieren	-10.1954
▁Arbeitsmarkt	-10.1956
▁betrachtet	-10.196
▁außer	-10.1961
▁mechanism	-10.1961
▁Even	-10.1961
▁Botschaft	-10.1964
▁mehrere	-10.1966
▁definition	-10.1968
▁beteiligt	-10.1972
▁submitted	-10.1973
▁Paper	-10.1988
▁wollte	-10.2021
▁einverstanden	-10.2026
▁möglichst	-10.2031
▁dealt	-10.2031
▁finde	-10.2032
▁burden	-10.2038
▁erfolgreich	-10.2047
▁Romania	-10.2047
▁exercise	-10.2048
lichkeit	-10.2054
▁enormous	-10.2055
▁beide	-10.2059
▁agencies	-10.206
▁Problemen	-10.2069
▁erklären	-10.2076
▁ideas	-10.2077
ko	-10.2093
▁Flexibilität	-10.2107
▁Trade	-10.2109
▁Erhöhung	-10.2116
▁regionalen	-10.2117
▁gestern	-10.2126
▁governance	-10.2133
▁constructive	-10.2135
▁fraud	-10.2141
▁Why	-10.2143
▁degree	-10.2146
▁Kyoto	-10.2149
▁Gesamt	-10.2149
▁parliaments	-10.2152
▁nennen	-10.2157
▁informed	-10.2158
▁integrated	-10.2159
▁improvement	-10.216
▁Agentur	-10.2161
▁critical	-10.2163
▁Charter	-10.2168
▁fear	-10.2176
▁defend	-10.2177
▁Ladies	-10.218
▁Risiko	-10.2188
▁addressed	-10.2191
▁send	-10.221
▁Hauses	-10.2215
▁konkreten	-10.2219
▁age	-10.2231
▁hervorheben	-10.2232
▁Do	-10.2233
▁came	-10.2237
▁By	-10.2239
▁directives	-10.2245
K	-10.2249
▁putting	-10.2252
▁immediately	-10.2255
▁jüngsten	-10.2261
lichen	-10.2268
▁1995	-10.227
▁targets	-10.2281
▁sensitive	-10.2281
▁expression	-10.2286
▁Europol	-10.229
▁andererseits	-10.2294
▁Veränderungen	-10.2294
▁happy	-10.2307
▁Aktionen	-10.2312
▁Liste	-10.2314
▁obligations	-10.2314
▁genutzt	-10.2314
▁allgemeine	-10.2316
spräsidentschaft	-10.2323
▁Alle	-10.2327
▁stattfinden	-10.2327
▁big	-10.2327
▁unable	-10.2341
▁growing	-10.2345
▁table	-10.2345
▁künftig	-10.2346
▁sea	-10.235
▁consultation	-10.2369
▁Middle	-10.2372
▁abgelehnt	-10.2372
▁Basis	-10.2374
▁500	-10.2377
▁Health	-10.238
▁fish	-10.238
▁contains	-10.2381
▁run	-10.2381
igen	-10.2387
▁Rechtsgrundlage	-10.2387
▁Nutzen	-10.2389
▁Überzeugung	-10.2391
▁choice	-10.2391
▁Idee	-10.2392
▁Übereinkommen	-10.2394
▁organised	-10.2395
▁Kingdom	-10.2397
▁Verbrechen	-10.2398
▁Pflicht	-10.2399
▁Prime	-10.2402
N	-10.2413
▁Sinn	-10.2422
▁managed	-10.2422
▁complex	-10.2426
▁f	-10.2428
▁mutual	-10.2429
▁Zuständigkeit	-10.2434
▁Verkehrs	-10.2443
▁Realität	-10.2445
▁Entlastung	-10.2452
▁erkennen	-10.2453
▁Einige	-10.2455
▁Japan	-10.2467
▁ahead	-10.2468
▁Hoffnung	-10.2472
▁Unabhängigkeit	-10.2478
▁merely	-10.2486
▁Staats	-10.249
▁betreffen	-10.2491
▁mainly	-10.2495
▁intention	-10.2501
▁operation	-10.2503
▁administration	-10.2514
▁sagt	-10.2514
▁Konzept	-10.2515
▁promotion	-10.2516
▁britischen	-10.2516
▁folgen	-10.2518
▁evidence	-10.2521
▁Agency	-10.2521
▁desire	-10.2526
▁Waffen	-10.2533
▁Kritik	-10.2542
▁24	-10.2546
▁seem	-10.2549
▁persönlich	-10.255
▁New	-10.2551
▁Klimawandel	-10.2565
▁Vorschlägen	-10.2567
▁Barcelona	-10.2568
▁disaster	-10.2578
▁late	-10.2579
▁child	-10.2582
▁Strategy	-10.2587
▁rejected	-10.2591
▁resolve	-10.2593
▁zudem	-10.2594
▁ernst	-10.2596
ol	-10.2596
RO	-10.26
und	-10.2608
▁mechanisms	-10.2609
▁Regional	-10.262
▁Chamber	-10.2621
▁KMU	-10.2631
▁persons	-10.2631
rat	-10.2631
▁Jetzt	-10.2633
▁signed	-10.2635
▁understanding	-10.2636
▁globalen	-10.2636
▁Ferner	-10.2641
▁Turkish	-10.2643
▁Spanien	-10.2651
▁geschieht	-10.2652
▁Warum	-10.2654
▁Ist	-10.2655
p	-10.2658
▁thousands	-10.2673
▁Vorbereitung	-10.2678
▁erfolgen	-10.2681
▁leading	-10.2684
▁Tagung	-10.2689
▁Drittens	-10.2695
▁Eindruck	-10.2704
▁Absicht	-10.2704
▁Anforderungen	-10.2708
▁positiven	-10.2714
▁leaders	-10.2715
▁aktiv	-10.2716
▁easy	-10.2734
▁elected	-10.2744
▁Sport	-10.2746
▁October	-10.2747
▁continuing	-10.2747
▁seitens	-10.2748
▁lost	-10.2756
▁vollständig	-10.2756
▁standard	-10.2759
▁technischen	-10.2761
▁repeat	-10.2764
▁Oktober	-10.2771
▁ausreichend	-10.2772
▁Pakistan	-10.2783
▁Anliegen	-10.2792
sländern	-10.28
▁Subsidiarität	-10.2808
▁Umfang	-10.2808
▁traffic	-10.2813
▁impossible	-10.2815
▁told	-10.2826
▁Russian	-10.2832
▁Anzahl	-10.2837
am	-10.2844
▁figures	-10.2845
▁Le	-10.2851
▁Vorteile	-10.2856
▁bezug	-10.2859
▁cover	-10.2862
el	-10.2863
▁kaum	-10.2863
▁hohe	-10.2864
▁Klima	-10.2867
▁substantial	-10.2872
▁resolutions	-10.2874
▁Seit	-10.289
▁zufrieden	-10.2896
Berücksichtigung	-10.2897
▁Fälle	-10.2899
▁gefördert	-10.29
ta	-10.2901
▁Amendments	-10.2904
▁abgeschlossen	-10.2908
▁Diskussionen	-10.2922
▁künftigen	-10.2923
▁Sicherheits	-10.2925
▁independence	-10.2926
▁Afrika	-10.2931
▁zweifellos	-10.2937
▁Many	-10.2944
▁Prüfung	-10.295
▁O	-10.295
▁ought	-10.2958
age	-10.2962
▁attitude	-10.2962
▁adequate	-10.2963
▁worked	-10.2967
▁Struktur	-10.2977
▁subsidiarity	-10.2985
▁Anspruch	-10.299
▁gelungen	-10.2995
▁positions	-10.2996
▁trafficking	-10.3002
ant	-10.3018
▁speakers	-10.302
▁North	-10.3025
▁Ausführungen	-10.3031
EL	-10.3031
▁includes	-10.3036
▁export	-10.3042
▁recommendation	-10.3043
▁benötigen	-10.3044
▁Polen	-10.3051
▁totally	-10.3057
▁wishes	-10.306
▁renewable	-10.3067
▁guarantees	-10.3068
▁structure	-10.3069
▁Menschenrecht	-10.307
▁appeal	-10.3072
▁akzeptiert	-10.3076
▁Hintergrund	-10.3076
▁besseren	-10.3081
▁Anteil	-10.3087
▁Entwicklungen	-10.3088
▁Einklang	-10.309
▁Hause	-10.309
▁heart	-10.3091
▁22	-10.3101
▁verabschiedet	-10.3105
▁Zweck	-10.3105
▁wahrscheinlich	-10.3106
sbereich	-10.3107
▁stimmt	-10.3109
▁solcher	-10.3115
▁bringing	-10.3132
▁permanent	-10.3132
▁extend	-10.3132
▁payments	-10.3133
▁Treffen	-10.3136
▁Verträge	-10.3145
onetary	-10.3149
▁related	-10.3153
▁technologies	-10.3157
▁intend	-10.3157
▁Ge	-10.3158
▁Standards	-10.3161
▁economies	-10.3162
▁normal	-10.3164
▁Zivil	-10.317
▁dis	-10.3171
▁income	-10.3175
▁Vorgehen	-10.3182
▁treaty	-10.3182
▁grateful	-10.3187
▁vorlegen	-10.319
▁dennoch	-10.319
sländer	-10.3192
hr	-10.3192
▁Gruppe	-10.3192
▁evaluation	-10.3193
institutionellen	-10.3195
▁instance	-10.3196
▁Arbeitsplätzen	-10.3197
▁Gleichstellung	-10.3201
▁Einfluss	-10.3208
▁National	-10.321
▁territory	-10.3217
▁Bau	-10.3217
▁Mio	-10.3218
▁Tagen	-10.3224
▁rates	-10.3234
▁SMEs	-10.3234
▁flexible	-10.3244
▁membership	-10.3244
▁Verbot	-10.3246
▁Pact	-10.3247
▁affairs	-10.3248
▁vollkommen	-10.325
▁bekämpfen	-10.3251
▁obvious	-10.3252
▁2011	-10.3257
▁failed	-10.3259
▁weshalb	-10.3261
▁sehe	-10.3261
▁anerkannt	-10.3261
recht	-10.3262
▁secure	-10.3264
▁travel	-10.3266
▁Gruppen	-10.3266
▁schwierigen	-10.3267
▁Bemerkungen	-10.3273
▁wichtiges	-10.3275
▁actual	-10.3276
▁ent	-10.3279
▁Dann	-10.3283
▁behandeln	-10.3288
▁näher	-10.3302
▁families	-10.3302
▁Kindern	-10.3306
▁Monate	-10.3307
▁bestätigt	-10.3312
▁highlight	-10.3319
▁Structural	-10.3321
▁opposed	-10.3329
▁Politiken	-10.3334
▁Viele	-10.3335
▁denken	-10.3339
▁Thirdly	-10.3355
▁Cyprus	-10.336
▁Einbeziehung	-10.336
▁Voraussetzungen	-10.3363
▁Reaktion	-10.3363
sprozess	-10.3366
▁involvement	-10.3369
uestion	-10.3372
▁official	-10.3372
▁Vorschlags	-10.3373
▁Obwohl	-10.3396
▁weiterer	-10.3396
▁enter	-10.3399
▁vielmehr	-10.3402
▁original	-10.3406
▁debates	-10.3406
▁African	-10.3411
▁office	-10.3414
▁getting	-10.3414
▁linked	-10.3415
▁23	-10.3423
ting	-10.3431
aus	-10.3433
▁...	-10.3434
▁Konflikt	-10.3435
▁sign	-10.3447
▁anderes	-10.3448
▁involving	-10.3452
▁reagieren	-10.3452
▁post	-10.3453
▁Freiheiten	-10.3453
▁forced	-10.3454
▁Programms	-10.3457
▁umfassende	-10.346
▁immediate	-10.3463
▁Juli	-10.3467
▁goal	-10.3473
▁Ereignisse	-10.3473
▁betrachten	-10.3478
▁trägt	-10.3491
▁controls	-10.3493
▁bilateral	-10.3494
▁weapons	-10.3502
▁hören	-10.352
▁Blick	-10.3528
▁happening	-10.3535
▁aussprechen	-10.3535
▁lines	-10.3537
▁aufgefordert	-10.3545
gunsten	-10.3545
▁legen	-10.3556
bar	-10.3557
politischen	-10.3561
▁advantage	-10.3562
▁tourism	-10.3565
▁Vermittlung	-10.357
▁i	-10.3576
▁Moment	-10.3578
Strategie	-10.3578
▁reden	-10.3578
▁Funds	-10.358
▁drugs	-10.358
▁tackle	-10.3582
▁Schluss	-10.3591
▁safe	-10.3605
▁falls	-10.3606
▁heraus	-10.3609
▁truly	-10.3615
▁faced	-10.3617
▁technische	-10.362
▁substances	-10.362
▁Zudem	-10.3624
▁Den	-10.3625
▁granted	-10.363
▁plenary	-10.3632
▁election	-10.3636
▁greatest	-10.3638
▁adopting	-10.3646
▁Welche	-10.3647
▁board	-10.3651
▁talks	-10.3654
and	-10.3661
▁verstärkt	-10.3663
▁Such	-10.3664
▁disease	-10.3668
▁politisch	-10.3669
▁ausschließlich	-10.3671
▁umzusetzen	-10.3672
▁absolute	-10.3673
▁element	-10.3676
▁anders	-10.3677
▁Ihren	-10.3678
▁Institution	-10.3687
▁gender	-10.3695
▁Außen	-10.3696
ma	-10.3698
▁Public	-10.3701
▁setzt	-10.3702
▁acts	-10.3702
▁usw	-10.3706
▁Beschluss	-10.371
▁recognised	-10.3713
▁link	-10.3717
▁campaign	-10.3721
▁protecting	-10.3723
▁besonderen	-10.3724
00	-10.3725
▁ready	-10.3726
▁finance	-10.3729
schaftliche	-10.3737
▁200	-10.3739
▁Bemerkung	-10.374
▁votes	-10.3751
▁erfordert	-10.3756
▁Stellung	-10.3758
▁nächste	-10.3762
▁Charta	-10.3763
▁Z	-10.3764
▁bilden	-10.3765
ti	-10.3766
▁einig	-10.3776
▁keinerlei	-10.3776
EC	-10.3777
▁interesting	-10.3781
▁round	-10.3783
▁seeking	-10.3791
▁car	-10.3807
▁Effizienz	-10.3808
▁conduct	-10.3809
▁followed	-10.3811
▁internationaler	-10.3812
▁appear	-10.3812
▁Gerichtshof	-10.3813
▁70	-10.3813
▁Poland	-10.3817
R	-10.3819
▁Besorgnis	-10.382
▁Regulierung	-10.3821
▁starting	-10.3821
▁credit	-10.3826
▁Dienste	-10.3827
▁Nos	-10.3828
▁grundlegenden	-10.3832
▁sensible	-10.3835
▁Unterschiede	-10.3838
▁Budget	-10.3844
▁covered	-10.3845
▁Sweden	-10.3845
▁modern	-10.3846
▁Während	-10.3848
▁Gemeinschafts	-10.385
▁suffering	-10.3851
▁bad	-10.3851
▁subsidies	-10.3857
▁minorities	-10.3872
▁Maastricht	-10.3874
▁explain	-10.3877
▁situations	-10.3879
▁miteinander	-10.3886
▁range	-10.3889
▁wesentliche	-10.3895
▁Rumänien	-10.3898
▁spielt	-10.3898
▁Vergleich	-10.3901
▁sides	-10.3912
ated	-10.3917
our	-10.3921
▁Sea	-10.3924
▁Schweden	-10.3927
▁July	-10.3928
▁floor	-10.393
20	-10.393
▁Kollegin	-10.3936
▁Greek	-10.3936
▁danger	-10.3939
▁La	-10.394
▁echte	-10.3942
Applause	-10.3951
▁carefully	-10.3953
▁globalisation	-10.3955
▁reject	-10.3959
li	-10.3959
▁sämtliche	-10.3973
▁Ziffer	-10.3974
▁diversity	-10.3977
ise	-10.3979
▁Abkommens	-10.3979
▁Gesetz	-10.3981
▁AKP	-10.3984
co	-10.3985
▁verurteilt	-10.3986
▁Beweis	-10.3987
▁innovative	-10.3998
▁lautet	-10.401
▁herzlich	-10.4015
▁Nahrungsmittel	-10.4015
▁shared	-10.4016
▁Konsens	-10.4017
▁diesbezüglich	-10.4019
▁Hohen	-10.402
▁begrüßt	-10.4026
▁Märkte	-10.4029
▁Aufbau	-10.4034
▁pollution	-10.4036
maßnahmen	-10.4037
▁eingereicht	-10.4038
▁annehmen	-10.4047
▁Verständnis	-10.4048
▁90	-10.4055
▁daraus	-10.4058
▁serve	-10.4063
▁involve	-10.4063
▁b	-10.4068
▁proposing	-10.4072
▁comply	-10.4075
▁Swedish	-10.4075
▁monitor	-10.4078
▁anbelangt	-10.4081
▁PSE	-10.4081
ismus	-10.4084
Beifall	-10.4088
▁länger	-10.4091
W	-10.41
▁Verringerung	-10.4105
▁Gas	-10.4107
▁signal	-10.411
▁nachdrücklich	-10.4111
▁zuständigen	-10.4113
▁meetings	-10.4116
▁ability	-10.4118
▁thereby	-10.4119
▁spent	-10.412
▁zahlreichen	-10.412
SV	-10.4127
▁partner	-10.4127
▁affect	-10.4128
▁Deswegen	-10.4129
▁äußern	-10.4131
▁changed	-10.4132
▁detailed	-10.4133
▁designed	-10.4134
▁Versuch	-10.4142
sbedingungen	-10.4142
▁committees	-10.4148
▁mobility	-10.4153
▁delay	-10.4161
▁inform	-10.4162
▁einerseits	-10.4168
▁Drogen	-10.4176
▁größeren	-10.4178
▁Mitgliedern	-10.4185
▁communities	-10.4189
▁criticism	-10.419
▁presence	-10.4195
▁detail	-10.4195
▁minority	-10.4201
▁jeweiligen	-10.4201
▁Mindest	-10.4206
hilfe	-10.4211
▁Beschlüsse	-10.4213
▁Energy	-10.4216
▁gelangen	-10.4223
▁Vorausschau	-10.4225
▁Lebens	-10.4228
▁Gedanken	-10.4235
▁structures	-10.4237
▁tätig	-10.4238
▁competence	-10.4239
ige	-10.4249
▁Nahe	-10.4255
▁Erfahrung	-10.4255
▁wichtigste	-10.4255
▁naturally	-10.4264
▁Voraussetzung	-10.4264
▁participate	-10.4271
▁Vorsitz	-10.4274
▁Technologien	-10.4277
▁harmonisation	-10.4279
U	-10.4279
▁Infrastruktur	-10.428
▁taxation	-10.4285
▁unabhängig	-10.4286
▁ständig	-10.4288
▁bedarf	-10.4289
man	-10.4297
▁separate	-10.4297
ry	-10.4297
▁gelöst	-10.43
▁Balkans	-10.4303
organisation	-10.4303
▁nachhaltigen	-10.4304
▁Mein	-10.431
▁erhebliche	-10.4312
▁Übereinstimmung	-10.4313
▁series	-10.4313
▁Phase	-10.4316
▁arms	-10.4318
▁emphasis	-10.4319
out	-10.432
▁voice	-10.4323
▁zuletzt	-10.4325
▁ACP	-10.4327
▁Mobilität	-10.4331
▁bezieht	-10.4332
▁worth	-10.4335
▁facilitate	-10.4339
▁Auditors	-10.4346
▁lower	-10.4349
▁Systems	-10.435
▁ausgesprochen	-10.435
▁regionale	-10.4356
▁transfer	-10.4361
▁approval	-10.4363
▁Zahlen	-10.4365
▁While	-10.4368
▁angemessen	-10.4374
▁Gleichgewicht	-10.4376
▁Dem	-10.4381
sausschusses	-10.4386
▁Definition	-10.4393
innen	-10.4396
▁entscheidend	-10.44
▁anyone	-10.4411
▁sinnvoll	-10.4411
▁judicial	-10.4422
▁Polizei	-10.4423
▁binding	-10.4428
ary	-10.4428
▁consistent	-10.4432
ad	-10.4433
▁target	-10.4434
▁bedeuten	-10.4434
▁planning	-10.4435
▁aktuellen	-10.4435
▁rail	-10.4438
▁betreffenden	-10.444
▁ferner	-10.444
▁maritime	-10.4441
▁lang	-10.4454
▁Ordnung	-10.446
▁vehicles	-10.4463
▁Haushaltsplan	-10.4469
▁rapid	-10.4478
▁Redner	-10.4479
▁expected	-10.4482
▁consumption	-10.4488
▁geehrte	-10.4491
▁mag	-10.4492
▁reasonable	-10.4497
▁Mut	-10.4505
markt	-10.4507
▁oral	-10.4512
▁representative	-10.4517
▁einheitlichen	-10.4518
▁firm	-10.4519
▁initial	-10.4522
▁credibility	-10.4525
system	-10.4532
ir	-10.4532
▁Budgets	-10.454
▁supports	-10.4548
▁amongst	-10.4548
▁Eastern	-10.4548
▁continues	-10.4549
▁Normen	-10.4559
▁Freizügigkeit	-10.4566
▁otherwise	-10.4572
▁nachdem	-10.4581
▁erfahren	-10.4595
▁obtain	-10.4598
▁Großbritannien	-10.46
▁causes	-10.4604
▁improvements	-10.4606
▁Analyse	-10.4607
▁Status	-10.4613
▁peoples	-10.4616
▁manage	-10.4618
▁betreffend	-10.4626
▁kürzlich	-10.4628
▁Volksgesundheit	-10.4628
▁vorzulegen	-10.465
▁employees	-10.4654
▁Außenpolitik	-10.4672
▁anwesend	-10.4682
▁verloren	-10.4684
▁Kontrollen	-10.469
▁Rule	-10.4692
▁formal	-10.4695
▁freie	-10.4695
▁Signal	-10.4705
▁Internationalen	-10.4707
▁angemessene	-10.471
▁unfair	-10.4723
id	-10.4725
▁hours	-10.4725
▁gave	-10.4726
▁nations	-10.4733
▁grundlegende	-10.4733
▁teile	-10.4734
▁aufzunehmen	-10.4735
▁Politiker	-10.4736
▁source	-10.4737
▁Schlussfolger	-10.4741
▁darunter	-10.4743
▁entry	-10.4752
▁obligation	-10.4755
▁treten	-10.4758
▁limits	-10.4763
▁declaration	-10.4768
▁arrangements	-10.478
▁Punkten	-10.4781
▁zufolge	-10.4785
▁immigrants	-10.4787
▁wer	-10.4788
▁maximum	-10.479
▁Vereinbarungen	-10.4793
▁amtierende	-10.4802
▁kulturellen	-10.4805
▁path	-10.4811
los	-10.4813
▁domestic	-10.4825
▁citizen	-10.4826
▁Western	-10.4829
▁session	-10.483
▁notwendige	-10.4838
▁neben	-10.4838
▁professional	-10.4846
▁solve	-10.4846
men	-10.4847
richtlinie	-10.4848
▁gestalten	-10.4851
▁tut	-10.4852
▁wide	-10.4853
▁hält	-10.4856
▁Vorhaben	-10.4861
▁speed	-10.4861
▁grounds	-10.4864
▁Angriff	-10.4869
▁Research	-10.487
▁neither	-10.4874
▁religious	-10.4874
▁visa	-10.4875
▁Only	-10.4882
ssystem	-10.4888
▁factor	-10.4888
▁möglichen	-10.4889
▁informiert	-10.4891
▁starke	-10.4896
▁funktioniert	-10.4896
▁alten	-10.4907
▁Elemente	-10.4912
▁genannt	-10.4913
▁Czech	-10.4925
ance	-10.4927
▁Problems	-10.4935
▁Agriculture	-10.4938
▁generally	-10.4939
▁compensation	-10.4945
▁Spiel	-10.4949
▁vorgeschlagene	-10.4949
▁easier	-10.4955
▁Strategien	-10.4957
▁französischen	-10.4961
▁Those	-10.4964
▁Wer	-10.4965
ität	-10.4966
▁teilweise	-10.4971
▁26	-10.4973
▁Vielleicht	-10.4974
▁started	-10.4974
▁languages	-10.4975
▁terrorist	-10.4976
op	-10.4979
▁encouraging	-10.4984
▁tobacco	-10.4984
▁ones	-10.4988
ler	-10.4991
▁Zur	-10.4993
▁Ka	-10.4995
▁Gemeinsame	-10.4996
▁Risiken	-10.4997
▁wiederholen	-10.5002
▁Van	-10.5004
▁lies	-10.5005
▁entscheidende	-10.5008
▁factors	-10.5015
▁attacks	-10.5015
▁rasch	-10.5019
▁komme	-10.5022
▁Familie	-10.503
▁verfügt	-10.5033
▁goals	-10.5034
▁bemüht	-10.5036
▁Bestandteil	-10.5037
▁Bulgaria	-10.5039
▁Stellen	-10.5041
▁Binnenmarktes	-10.5042
iv	-10.5044
▁Neu	-10.5047
▁Zentralbank	-10.5049
▁ergeben	-10.505
▁Unser	-10.5051
▁speaker	-10.5052
▁nunmehr	-10.5053
▁vorgenommen	-10.5054
▁debt	-10.5058
▁appears	-10.5063
▁whilst	-10.5066
▁fail	-10.5072
▁abstimmen	-10.5076
▁politics	-10.5079
▁Des	-10.5082
▁Socialist	-10.5082
▁Also	-10.5084
▁keiner	-10.5085
▁constitutional	-10.5091
▁Ebenso	-10.5092
▁mündliche	-10.5092
▁vision	-10.5095
schaft	-10.5097
▁leiden	-10.5098
▁politicians	-10.5101
▁welfare	-10.5108
zusammenarbeiten	-10.5109
▁niemand	-10.5111
ien	-10.5119
▁respected	-10.5132
▁From	-10.5148
▁eingehalten	-10.5151
▁übrigens	-10.5156
ze	-10.516
▁Glaubwürdigkeit	-10.5165
▁moving	-10.5168
ci	-10.517
▁Europeans	-10.5171
▁Sektoren	-10.5171
▁entsprechen	-10.5173
ik	-10.5174
ot	-10.5183
▁abgestimmt	-10.5186
based	-10.5186
▁month	-10.5189
▁Waren	-10.5192
▁Stand	-10.5192
▁geäußert	-10.5195
▁delighted	-10.5195
ft	-10.5199
▁scale	-10.5201
▁beziehen	-10.5209
▁sent	-10.5213
ie	-10.5217
▁regulatory	-10.5218
▁kennen	-10.5223
▁continent	-10.5223
▁recovery	-10.5228
▁achten	-10.523
▁UNO	-10.5231
Die	-10.5234
fe	-10.5241
▁Umständen	-10.5241
▁Ratifizierung	-10.5246
▁contributions	-10.5246
▁Kontroll	-10.5247
▁Vereinfachung	-10.5258
▁W	-10.526
▁Erzeugnisse	-10.5262
▁folgende	-10.5264
▁Befugnisse	-10.5269
▁lokalen	-10.5277
bereich	-10.5287
▁imposed	-10.5292
▁unterstreichen	-10.5293
▁Market	-10.5295
▁entstehen	-10.5297
▁fällt	-10.5301
▁freedoms	-10.5302
▁Legal	-10.5305
▁warten	-10.5318
▁Produkt	-10.5319
▁endorse	-10.5324
▁erfolgt	-10.5325
▁worse	-10.5332
▁evening	-10.5333
▁Aktionsplan	-10.534
▁richtigen	-10.5341
▁übernommen	-10.5345
▁Zeichen	-10.5352
▁negotiating	-10.5356
▁construction	-10.5356
▁Wirklichkeit	-10.5359
▁equally	-10.5361
▁restrictions	-10.5363
▁constitution	-10.5363
▁requirement	-10.5364
▁richten	-10.5365
▁Last	-10.5365
▁Kommunikation	-10.5367
Mitgliedstaaten	-10.5379
▁High	-10.538
▁Vice	-10.5381
▁Regime	-10.5383
▁West	-10.5384
▁attack	-10.5386
▁Abend	-10.539
▁reflect	-10.5394
ag	-10.5394
▁Tiere	-10.5395
▁approve	-10.5398
▁Jugend	-10.5403
sterreich	-10.5405
▁Überlegungen	-10.5417
▁migration	-10.5418
▁spending	-10.5422
▁uneingeschränkt	-10.5423
▁mindestens	-10.5423
▁Baltic	-10.5427
lo	-10.5427
▁plant	-10.5428
▁Sorgen	-10.5431
▁inclusion	-10.5434
▁geschützt	-10.5434
▁falsch	-10.5437
▁interested	-10.5438
▁experts	-10.5438
▁capable	-10.5441
▁Abschaffung	-10.5444
▁allgemein	-10.5447
▁Kriminalität	-10.5447
▁Verbesserungen	-10.545
▁verlieren	-10.5451
▁verdient	-10.5458
▁sch	-10.5461
▁Verhältnis	-10.5467
▁impose	-10.5469
▁compliance	-10.547
▁Führung	-10.5479
chen	-10.5479
shilfe	-10.5483
▁hervorgehoben	-10.5485
▁placed	-10.549
▁forthcoming	-10.5495
▁2013	-10.5499
▁proposes	-10.5502
▁Dienst	-10.5505
ra	-10.551
ren	-10.5516
▁helping	-10.5517
▁labelling	-10.5518
▁verstärken	-10.5519
▁mass	-10.5538
ka	-10.554
▁Netherlands	-10.554
▁massive	-10.5545
▁durchzuführen	-10.5548
▁century	-10.555
▁appropriations	-10.5556
▁proceed	-10.5559
▁künftige	-10.5563
▁geprüft	-10.5564
▁referendum	-10.5569
▁letztendlich	-10.5574
▁crimes	-10.5575
▁verlangen	-10.5576
President	-10.558
▁Ausnahme	-10.558
▁überein	-10.5583
▁Antworten	-10.5595
pf	-10.5596
▁entscheidender	-10.5598
▁personally	-10.5598
▁ausgezeichneten	-10.5599
▁likely	-10.56
ate	-10.5601
svorschlag	-10.5605
▁conflicts	-10.5606
▁einbezogen	-10.5611
▁mehreren	-10.5612
▁Prinzipien	-10.5613
▁bemühen	-10.5616
▁numerous	-10.5616
▁Stability	-10.5616
▁guaranteed	-10.5617
▁Strasbourg	-10.562
▁geltenden	-10.5621
0	-10.5622
▁spricht	-10.5623
▁Opposition	-10.5624
▁Action	-10.5629
▁parlamentarisch	-10.5633
▁Kern	-10.5633
▁verlangt	-10.5633
▁Modell	-10.5634
▁k	-10.5639
▁traditional	-10.5641
V	-10.5642
▁strict	-10.5642
▁ausgesetzt	-10.5642
▁payment	-10.5651
▁glad	-10.5658
▁illegalen	-10.5658
▁fighting	-10.5661
▁Copenhagen	-10.5661
▁Kopenhagen	-10.5661
▁resolved	-10.5664
▁Formen	-10.5665
▁awareness	-10.5677
▁sexual	-10.5678
▁Straßburg	-10.5686
▁diseases	-10.5688
ert	-10.5688
▁lose	-10.5691
▁allowing	-10.5691
▁fulfil	-10.5692
▁übertragen	-10.5695
▁via	-10.5696
▁Austria	-10.5701
▁defined	-10.5702
om	-10.5703
▁gezogen	-10.5703
▁humanitäre	-10.5712
▁erscheint	-10.5714
▁London	-10.5724
▁Personal	-10.5726
▁wirtschaftlich	-10.5727
▁realise	-10.5728
▁pension	-10.573
▁Fischer	-10.5731
▁Krankheiten	-10.574
▁learn	-10.5743
▁tasks	-10.5747
▁letter	-10.5755
▁derartige	-10.5759
▁Luxembourg	-10.5759
os	-10.5759
▁Wettbewerbs	-10.5761
nt	-10.5763
▁bereitgestellt	-10.5763
▁examine	-10.5765
▁material	-10.577
▁umfassenden	-10.577
▁continued	-10.5771
▁truth	-10.5773
▁35	-10.5779
▁existence	-10.579
erweise	-10.5794
▁schließen	-10.5797
▁Portuguese	-10.5802
▁purposes	-10.5802
▁operations	-10.5806
j	-10.5807
▁customs	-10.5807
keit	-10.5809
▁Friedens	-10.5812
▁voluntary	-10.5814
▁base	-10.5815
▁Dienstleistungs	-10.5829
▁investments	-10.583
▁Framework	-10.583
▁trading	-10.5841
▁versichern	-10.5841
▁Zielen	-10.5841
▁leicht	-10.5843
ised	-10.5847
▁Ombudsman	-10.5855
▁Berlin	-10.5859
▁neues	-10.5859
▁Technologie	-10.5862
▁mission	-10.5866
▁demonstrate	-10.5866
▁beste	-10.5873
▁Wiederaufbau	-10.5873
▁exists	-10.5873
▁According	-10.5874
▁vorliegende	-10.5878
▁28	-10.5882
▁distribution	-10.5883
▁safeguard	-10.5888
▁anstatt	-10.5892
▁anschließen	-10.5899
▁profitieren	-10.5909
▁Handeln	-10.5909
▁einzigen	-10.5914
▁Niveau	-10.5916
ring	-10.5923
▁opinions	-10.5923
▁demonstrated	-10.5924
▁occasions	-10.5928
▁Begriff	-10.5929
▁ging	-10.5929
▁gewährt	-10.5929
▁effectiveness	-10.5938
▁disasters	-10.5943
▁associated	-10.595
▁Verhalten	-10.5955
▁operate	-10.5956
▁begonnen	-10.5966
▁peaceful	-10.5967
▁phase	-10.5971
▁functioning	-10.5975
vor	-10.5976
▁befindet	-10.5977
▁counter	-10.5979
▁volle	-10.5982
▁Mann	-10.5983
▁protected	-10.5984
▁bestimmt	-10.5991
EG	-10.5992
▁top	-10.5994
▁Gespräche	-10.5997
▁Ablehnung	-10.5998
▁officials	-10.6
▁assure	-10.6008
▁abhängig	-10.601
▁remarks	-10.6013
▁beschäftigt	-10.602
▁operators	-10.602
▁bestimmter	-10.6022
▁seien	-10.6023
▁Head	-10.6024
▁passengers	-10.6025
▁Austausch	-10.6031
▁jetzigen	-10.6031
▁wonder	-10.6038
ce	-10.6042
▁dritten	-10.6043
▁Finanzielle	-10.6045
▁rechtlichen	-10.6051
▁banks	-10.6053
au	-10.6053
▁revision	-10.6056
▁Another	-10.606
▁option	-10.6062
ug	-10.6066
▁Gefahren	-10.6068
▁großes	-10.6069
▁sub	-10.607
▁Erwartungen	-10.6073
▁entschlossen	-10.6075
▁Umweltschutz	-10.608
02	-10.6081
▁centre	-10.6084
▁written	-10.6086
zeit	-10.6087
▁Schaden	-10.6089
na	-10.6095
▁Mandat	-10.6095
▁Schwerpunkt	-10.6098
▁legitimate	-10.6101
▁Männern	-10.6104
▁Umweltfragen	-10.6105
▁Katastrophen	-10.6111
▁entitled	-10.6114
▁finanziert	-10.6115
▁wirksam	-10.6115
▁tried	-10.6115
▁erwartet	-10.6116
▁heutige	-10.6117
▁Gericht	-10.6119
▁seines	-10.6121
ub	-10.6122
▁Fremdenverkehr	-10.6133
▁Todesstrafe	-10.6133
▁ethnic	-10.6137
▁Commissioners	-10.6139
▁beteiligen	-10.614
Kohäsionspolitik	-10.6148
sfreiheit	-10.6156
▁ultimately	-10.6159
▁Lastly	-10.6162
▁contained	-10.6162
▁verleihen	-10.6169
▁Aktion	-10.6177
▁Arbeits	-10.6181
▁Financial	-10.6182
▁suggest	-10.6183
▁31	-10.6194
▁justified	-10.6196
▁succeed	-10.6201
▁primarily	-10.6202
▁wenigen	-10.6203
des	-10.6207
▁bewegen	-10.621
▁concluded	-10.6211
▁Regierungschefs	-10.6211
▁Flüchtlinge	-10.6217
ies	-10.622
▁Männer	-10.622
▁Platz	-10.6221
▁praktisch	-10.6221
▁scheme	-10.6229
▁eng	-10.6237
EU	-10.6238
▁See	-10.6238
▁overcome	-10.6239
▁Mitentscheidung	-10.6243
▁cooperate	-10.6246
▁electronic	-10.6247
▁Parlamente	-10.6248
▁technological	-10.625
▁Chinese	-10.6254
▁dankbar	-10.6262
▁Katastrophe	-10.6263
▁weiteres	-10.6269
▁Treaties	-10.6269
▁hauptsächlich	-10.6269
▁Schlüssel	-10.6275
▁Korruption	-10.6276
▁unterzeichnet	-10.6277
▁Wirkung	-10.628
▁Einrichtungen	-10.6281
▁Malta	-10.6285
▁spanischen	-10.6286
▁difference	-10.6288
spräsident	-10.6295
▁britische	-10.6299
▁average	-10.6302
▁Balkan	-10.6304
▁loss	-10.6305
▁substance	-10.6307
▁kam	-10.6309
▁hoffentlich	-10.6313
▁speziell	-10.6315
▁appreciate	-10.6316
pp	-10.6318
▁visit	-10.6325
▁Konsequenzen	-10.6331
▁Herzen	-10.6334
▁brief	-10.6336
stellen	-10.6338
▁trans	-10.6339
▁Arbeitsplatz	-10.6341
sausschuss	-10.6346
▁Wohlstand	-10.6347
▁entgegen	-10.6347
▁lay	-10.6348
▁auffordern	-10.6351
▁wiederholt	-10.6352
▁Widerspruch	-10.6354
▁Mir	-10.6355
▁decisive	-10.6355
▁welcher	-10.636
▁Praktiken	-10.6362
▁suchen	-10.6364
▁involves	-10.6364
▁sichern	-10.6366
▁passed	-10.637
▁allocated	-10.637
verfahren	-10.6371
▁dignity	-10.6377
▁J	-10.6377
▁jegliche	-10.6387
▁contact	-10.639
▁informieren	-10.6393
Staaten	-10.6393
▁Despite	-10.6396
rs	-10.6396
▁c	-10.6397
▁imports	-10.6398
▁festzulegen	-10.64
▁millions	-10.64
▁space	-10.6403
▁violations	-10.6404
▁wodurch	-10.6407
programm	-10.6411
▁con	-10.6411
▁fuel	-10.6416
▁occasion	-10.6416
▁Report	-10.6418
▁fehlt	-10.6423
▁Februar	-10.6424
▁Mittelpunkt	-10.6427
▁kämpfen	-10.6429
▁Reduzierung	-10.6429
▁suffer	-10.6436
beauftragten	-10.6441
▁February	-10.6443
▁Zeiten	-10.6445
▁amounts	-10.6447
v	-10.6448
▁g	-10.6449
▁extended	-10.6451
▁corruption	-10.6459
▁vorgesehenen	-10.646
▁sozialer	-10.6461
▁individuals	-10.6463
▁test	-10.6463
versorgung	-10.6465
▁played	-10.6469
▁1,	-10.6476
▁Given	-10.6478
▁verteidigen	-10.6479
▁Versammlung	-10.6482
▁got	-10.6484
▁Mittelmeer	-10.6487
▁Leute	-10.649
▁Zusammenhalt	-10.6494
heit	-10.6495
▁planned	-10.6502
▁CAP	-10.6504
▁St	-10.6506
auf	-10.6516
▁Fundamental	-10.6519
▁prepare	-10.6523
▁emergency	-10.6528
▁Gewährleistung	-10.6528
▁impression	-10.6532
▁bestehende	-10.6541
▁gezwungen	-10.6543
▁Sonder	-10.6548
▁garantieren	-10.6554
▁Zoll	-10.6554
▁2.	-10.6558
x	-10.6559
▁spreche	-10.6561
▁nevertheless	-10.657
▁verstanden	-10.6573
▁whatever	-10.6575
▁India	-10.6577
ier	-10.6578
▁treated	-10.658
▁pursue	-10.658
srecht	-10.6583
▁Ihrem	-10.6586
▁NGOs	-10.6587
▁Marktes	-10.6588
▁please	-10.6588
mal	-10.659
▁klaren	-10.659
▁firmly	-10.6593
▁wünsche	-10.6594
▁rein	-10.6601
▁farming	-10.6603
▁court	-10.6604
▁Perhaps	-10.6604
ous	-10.6605
▁Women	-10.6605
▁Indien	-10.6607
▁unless	-10.6609
▁folgenden	-10.661
▁Bar	-10.6611
▁ernsthaft	-10.6618
▁einheitliche	-10.6621
▁erwähnen	-10.6622
▁erhöht	-10.6626
▁frage	-10.6628
▁schlägt	-10.6629
▁Zypern	-10.6631
▁vulnerable	-10.6631
▁Organe	-10.6633
ber	-10.6639
▁spoke	-10.664
▁einzelstaatlich	-10.6642
▁niemals	-10.6642
▁Kontinent	-10.6643
▁Assembly	-10.6646
▁genauso	-10.6647
▁beschäftigen	-10.6651
▁Dutch	-10.6654
▁Eisenbahn	-10.6656
▁Maß	-10.6658
▁Gaza	-10.6658
▁somewhat	-10.6662
▁seven	-10.6665
▁absurd	-10.6666
▁clause	-10.6666
▁11.	-10.6669
▁requested	-10.6677
fall	-10.6683
▁Systeme	-10.6685
ster	-10.6686
▁Trotz	-10.6693
▁welchen	-10.6695
rechte	-10.6696
▁abuse	-10.6697
▁überall	-10.6697
▁hands	-10.6698
▁Here	-10.6702
▁Konvent	-10.6703
ising	-10.6711
▁statistics	-10.6712
▁Wahrheit	-10.6713
▁dank	-10.6718
▁temporary	-10.672
))	-10.6722
▁confirm	-10.6723
▁dritte	-10.6726
▁taxes	-10.673
▁Straßen	-10.6732
▁Anfragen	-10.6733
▁erheblich	-10.6734
▁latter	-10.6735
▁29	-10.6738
▁collective	-10.674
▁letztlich	-10.6743
▁zweitens	-10.6743
kt	-10.6744
▁Währungsunion	-10.6751
▁Einstellung	-10.6753
sstaatlichkeit	-10.6766
▁ministers	-10.677
▁gelegt	-10.6774
▁1994	-10.6782
▁Charakter	-10.6783
▁wenige	-10.6783
▁penalty	-10.679
▁secondly	-10.6792
▁beigetragen	-10.6796
vo	-10.6799
▁gestärkt	-10.6801
▁property	-10.6802
▁obstacles	-10.681
▁zugleich	-10.6811
▁knows	-10.6819
01	-10.6821
▁bedauerlich	-10.6821
ffnung	-10.6822
▁Paket	-10.6826
▁Preise	-10.6827
tra	-10.6828
▁effektiv	-10.6829
▁industries	-10.6834
▁Will	-10.6837
▁gain	-10.6842
▁Wissen	-10.6843
▁Banken	-10.6847
▁exclusion	-10.6848
▁Grünen	-10.6853
▁konkret	-10.6853
▁Stadt	-10.6856
▁pass	-10.6863
▁erleichtern	-10.6864
▁öffentlich	-10.6866
▁record	-10.6866
▁preparing	-10.6868
▁Studie	-10.6868
▁nötig	-10.687
▁Asia	-10.6872
▁einzuführen	-10.6873
▁N	-10.6877
▁happens	-10.6878
▁gehalten	-10.688
▁Patienten	-10.6887
▁quotas	-10.689
▁eingegangen	-10.6899
▁drawing	-10.6902
▁prove	-10.6903
▁verringern	-10.6904
▁gone	-10.6904
▁ländliche	-10.6908
▁wirksame	-10.6909
▁jungen	-10.691
▁extension	-10.6912
▁fishermen	-10.6912
▁considering	-10.6913
▁excessive	-10.6916
▁gutes	-10.6917
▁besorgt	-10.6923
▁Rück	-10.6929
▁examples	-10.6931
▁Fisheries	-10.6931
▁Angaben	-10.6942
▁Because	-10.6943
▁Bulgarien	-10.6945
▁zunehmend	-10.6949
sstrategie	-10.6954
con	-10.6954
▁Element	-10.6954
▁angewandt	-10.6954
▁amerikanischen	-10.6955
▁bezeichnet	-10.6956
▁offers	-10.6965
General	-10.6966
L	-10.6968
▁Doha	-10.6968
▁unmittelbar	-10.6969
▁Ohne	-10.6971
▁mögliche	-10.6971
▁GAP	-10.6973
▁preventing	-10.6973
▁highest	-10.6974
di	-10.6976
HU	-10.6979
▁stehenden	-10.6984
▁Dialogs	-10.6986
▁damals	-10.6991
Bericht	-10.6991
▁compared	-10.6992
▁operational	-10.6994
ha	-10.7005
ach	-10.7005
▁beschränkt	-10.7007
▁Gegensatz	-10.7011
▁fiscal	-10.7015
▁duties	-10.7015
▁jenen	-10.702
▁Menschenrechts	-10.7022
▁Übergang	-10.7026
▁Korea	-10.7027
▁undoubtedly	-10.7031
▁universal	-10.7032
ating	-10.7033
▁urgently	-10.7034
▁Arten	-10.7037
▁gewählt	-10.7038
▁ursprünglichen	-10.7042
▁spoken	-10.7046
Energieeffizienz	-10.7046
▁Freude	-10.7063
5-00	-10.707
▁agency	-10.7075
▁palästinensisch	-10.7079
▁Croatia	-10.7081
▁noted	-10.7084
▁constantly	-10.7085
▁insist	-10.7086
▁schafft	-10.7087
▁institutionelle	-10.7088
▁Israeli	-10.7089
▁relates	-10.7089
▁regular	-10.709
ere	-10.709
▁Darum	-10.7092
▁applying	-10.7095
▁Mangel	-10.7096
▁works	-10.7099
▁proceedings	-10.7101
▁ratification	-10.7103
▁relativ	-10.7106
▁Hungarian	-10.7107
▁sofort	-10.7107
▁Urteil	-10.7108
▁zuvor	-10.7108
▁latest	-10.7109
▁vorschlagen	-10.7109
▁codecision	-10.7111
▁details	-10.7112
▁Dublin	-10.7119
▁teilnehmen	-10.7119
▁echten	-10.712
▁links	-10.712
ri	-10.7126
abkommen	-10.7128
bi	-10.713
▁Volkspartei	-10.7131
ty	-10.7134
▁allzu	-10.7134
▁paper	-10.7135
▁behaviour	-10.7135
▁Person	-10.7137
ke	-10.7139
▁Krisen	-10.7139
▁willing	-10.7142
▁prosperity	-10.7143
▁processes	-10.7148
▁Arbeiten	-10.7151
▁wollten	-10.7153
▁Luft	-10.7154
kommen	-10.7157
▁OLAF	-10.7159
▁geregelt	-10.716
▁expectations	-10.716
▁stocks	-10.716
tenden	-10.7162
▁Alliance	-10.7164
▁Debatten	-10.7164
▁paar	-10.7168
▁Nein	-10.7168
▁announced	-10.7169
eren	-10.7177
▁courage	-10.718
▁verhindert	-10.718
▁Agrar	-10.7189
▁Teilen	-10.719
sa	-10.7191
▁parallel	-10.7192
▁erinnert	-10.7196
▁Beispiele	-10.7197
▁stronger	-10.72
▁operating	-10.7208
▁Patten	-10.7209
▁conciliation	-10.7212
ities	-10.7213
fragen	-10.7215
▁Bereitschaft	-10.7216
▁function	-10.7217
▁solches	-10.7217
▁Strukturen	-10.7218
▁vorhanden	-10.7219
▁gefährdet	-10.722
bau	-10.7221
▁keeping	-10.7228
▁garantiert	-10.7229
▁beruht	-10.7233
▁300	-10.7236
▁precise	-10.7238
▁described	-10.7239
▁e	-10.7241
do	-10.7244
▁2012	-10.7249
▁Consumer	-10.725
▁association	-10.7254
▁near	-10.7254
▁minutes	-10.726
▁eingebracht	-10.7261
▁allows	-10.7263
▁determined	-10.7269
▁entfernt	-10.727
ine	-10.7279
▁Dringlichkeit	-10.7282
▁vorgelegten	-10.7284
▁introducing	-10.7286
▁einzusetzen	-10.7291
▁Sprachen	-10.7292
▁tool	-10.7294
▁insurance	-10.7302
▁derzeitige	-10.7303
ken	-10.7305
▁globale	-10.7307
▁pillar	-10.7321
▁Genehmigung	-10.7323
▁strategies	-10.7323
▁ziemlich	-10.7327
Das	-10.7328
smöglichkeiten	-10.7329
tre	-10.7331
▁beinhaltet	-10.7335
▁m	-10.7343
▁guter	-10.7345
▁exploitation	-10.7347
▁studies	-10.7348
▁represented	-10.7352
▁barriers	-10.7356
▁Al	-10.7362
CS	-10.7364
▁territorial	-10.7369
▁Bedarf	-10.7371
▁Stoffe	-10.7376
▁humanitären	-10.7383
▁froh	-10.7385
▁clarify	-10.739
▁arguments	-10.7393
▁convergence	-10.7393
▁trifft	-10.7393
▁groß	-10.7397
▁submit	-10.7397
▁stärkere	-10.7399
▁mittleren	-10.7399
▁u	-10.7402
ak	-10.741
▁hervor	-10.7412
▁Arbeitnehmern	-10.7414
▁types	-10.7416
▁intends	-10.7418
▁confirmed	-10.7419
▁bestätigen	-10.7424
▁illegale	-10.7424
▁wiederum	-10.7427
▁danach	-10.7428
▁überprüfen	-10.7439
▁Protection	-10.7439
▁acht	-10.7439
▁timetable	-10.7445
▁1990	-10.7448
▁etc	-10.7455
▁assume	-10.7455
▁Tage	-10.7461
▁accounts	-10.7467
▁Religion	-10.7468
▁ausgezeichnete	-10.7469
▁historic	-10.7469
▁strengthened	-10.7472
ba	-10.7474
▁welcomed	-10.7479
▁August	-10.7481
▁sonst	-10.7482
▁Beteiligten	-10.7483
▁extreme	-10.7483
▁unmöglich	-10.7485
▁dient	-10.7485
▁contracts	-10.7489
▁published	-10.7491
▁Vorteil	-10.7492
▁Bedürfnisse	-10.7493
▁coherent	-10.7493
▁briefly	-10.7501
▁debating	-10.7502
▁kept	-10.7502
▁equipment	-10.7502
▁ex	-10.751
▁junge	-10.7514
▁gerichtet	-10.7525
▁soeben	-10.7527
▁multilateral	-10.7527
▁voraus	-10.7528
▁menschlichen	-10.7528
▁fine	-10.7529
▁Erzeuger	-10.753
▁Migration	-10.7531
▁Ansichten	-10.7531
terinstitutional	-10.7536
▁largely	-10.7538
5-01	-10.7543
▁solange	-10.7544
▁erleben	-10.7546
▁deliver	-10.7547
2-	-10.7548
year	-10.7554
igkeit	-10.7561
▁Serbia	-10.7569
▁Verhandlung	-10.7572
▁politically	-10.7573
▁teilen	-10.7575
▁Gerechtigkeit	-10.7577
▁spezifischen	-10.7585
▁Kapital	-10.7586
▁benötigt	-10.7587
▁Gelder	-10.7591
▁konfrontiert	-10.7594
▁realistic	-10.7595
led	-10.7595
▁bedanken	-10.7607
▁unverzüglich	-10.7608
▁Klein	-10.7608
är	-10.7613
ally	-10.7615
▁starken	-10.7619
▁choose	-10.762
▁manchmal	-10.762
ger	-10.762
la	-10.7623
▁restructuring	-10.7624
▁Gegenstand	-10.7624
▁breite	-10.7627
▁Na	-10.7634
▁materials	-10.7636
▁abzu	-10.7641
ven	-10.7642
less	-10.7643
▁staatlichen	-10.7648
▁sovereignty	-10.765
▁Würde	-10.7658
▁verlassen	-10.7659
▁maintaining	-10.766
ll	-10.7661
▁ALDE	-10.7662
▁herrscht	-10.7665
▁More	-10.7666
▁kulturelle	-10.7667
die	-10.767
▁zuständig	-10.7673
▁kurzem	-10.7681
▁umsetzen	-10.7682
▁condemn	-10.7682
▁Constitutional	-10.7687
siehe	-10.7687
▁Militär	-10.7691
▁follows	-10.7691
▁electricity	-10.7692
wirtschaft	-10.7696
▁irischen	-10.7702
▁Solana	-10.7709
▁urgency	-10.7713
▁patent	-10.7722
▁leadership	-10.7726
▁Einkommen	-10.7727
▁erlebt	-10.7727
▁bislang	-10.7732
▁nation	-10.7734
▁Export	-10.7734
▁Employment	-10.7735
▁front	-10.7735
▁durchführen	-10.7737
▁largest	-10.7738
▁amending	-10.7742
▁sieben	-10.7743
▁verwenden	-10.7743
▁erfreut	-10.7748
▁wine	-10.775
▁Geist	-10.7751
▁Bild	-10.7751
▁Bereitstellung	-10.7752
▁finding	-10.7753
▁gebeten	-10.7762
▁menschliche	-10.7764
▁Kräfte	-10.7765
▁zusätzlichen	-10.7766
ho	-10.7769
▁Resolution	-10.777
▁privaten	-10.7771
▁coordinated	-10.7772
▁Dur	-10.7773
▁Andererseits	-10.7774
▁condition	-10.7774
▁ansprechen	-10.7774
▁dependent	-10.778
▁assess	-10.7787
▁perfectly	-10.7788
▁Instead	-10.7791
▁früher	-10.7794
▁room	-10.7794
▁supervision	-10.7795
▁Übrigen	-10.7795
▁deutschen	-10.7797
▁3.	-10.7797
▁undertaken	-10.7799
▁Vorrang	-10.78
pa	-10.7801
session	-10.7806
▁Verwirklichung	-10.783
ure	-10.783
▁enjoy	-10.7832
▁extra	-10.7835
we	-10.7839
▁Kennzeichnung	-10.7841
ph	-10.7847
isierung	-10.7848
▁Can	-10.7851
▁Verheugen	-10.7851
▁wonach	-10.7861
▁Insbesondere	-10.7864
▁Sa	-10.7865
▁italienischen	-10.7866
▁argument	-10.7873
▁befürwortet	-10.7885
▁zulassen	-10.7888
▁advance	-10.789
▁Energien	-10.7896
▁felt	-10.7899
▁absence	-10.7904
▁fields	-10.7904
▁GUE	-10.7906
▁Ashton	-10.7908
stehen	-10.791
▁Teilnahme	-10.7913
▁Bitte	-10.7916
▁Hälfte	-10.7917
▁Nachbarschaft	-10.7917
▁define	-10.7922
▁Untersuchungen	-10.7922
▁Konsultation	-10.7923
▁Subject	-10.7925
▁verstehe	-10.7926
▁contain	-10.7927
▁transition	-10.7929
end	-10.7929
▁Ausarbeitung	-10.7934
▁answers	-10.7937
▁honour	-10.7937
vi	-10.7938
▁Steuern	-10.7939
▁significantly	-10.7944
▁verurteilen	-10.7952
▁parliament	-10.7957
▁offered	-10.7961
▁weitgehend	-10.7961
▁waiting	-10.7963
▁Berichten	-10.7967
▁grundsätzlich	-10.7967
▁Control	-10.7974
▁shadow	-10.7974
▁befürworten	-10.7975
tion	-10.7976
her	-10.7978
▁concentrate	-10.7978
▁sorgfältig	-10.7979
ted	-10.798
▁Li	-10.7984
▁verantwortungs	-10.7985
Wirtschaftskrise	-10.7986
▁festgelegten	-10.799
▁spezielle	-10.7991
▁beschränken	-10.7994
▁brings	-10.7995
pe	-10.7996
▁deswegen	-10.8
▁careful	-10.8002
▁ongoing	-10.8002
▁Beseitigung	-10.8004
▁identity	-10.8004
▁Zeitplan	-10.801
▁united	-10.8013
▁places	-10.8013
▁Fischler	-10.8014
tschaftswachstum	-10.8019
▁rechtliche	-10.8024
▁gewissen	-10.8026
▁Bedrohung	-10.8029
▁Methoden	-10.8031
▁medical	-10.8031
▁Prozeß	-10.8032
▁Asyl	-10.8035
▁proved	-10.8036
▁wait	-10.8037
NGL	-10.8044
kl	-10.8046
▁invest	-10.8047
legen	-10.8048
▁Labour	-10.8053
sfonds	-10.8065
▁acknowledge	-10.8068
▁Außenminister	-10.8069
▁stable	-10.8072
erstattern	-10.8075
▁veröffentlicht	-10.8075
▁eingeleitet	-10.8078
▁spezifische	-10.8079
▁Schiffe	-10.8081
produktion	-10.8082
▁Erhaltung	-10.8086
▁Chancen	-10.8091
▁sport	-10.8098
▁Monat	-10.8098
▁verursacht	-10.8107
▁Laufe	-10.8109
▁disposal	-10.8111
▁Boden	-10.8112
▁Austrian	-10.8113
stand	-10.8114
▁difficulty	-10.8115
▁jährlich	-10.812
▁höhere	-10.8121
▁vorbereitet	-10.8124
▁determination	-10.8125
▁Methode	-10.8127
▁Ungarn	-10.8129
▁changing	-10.8129
▁dürfte	-10.813
▁überzeugen	-10.8132
▁Protocol	-10.8133
▁legally	-10.8134
▁release	-10.8137
▁Respekt	-10.8142
▁Anbetracht	-10.8142
▁Unterschied	-10.8146
lu	-10.8147
▁accidents	-10.8148
▁Faktoren	-10.8149
ical	-10.8149
▁Betrifft	-10.8155
▁definiert	-10.8155
igt	-10.8157
▁significance	-10.816
ear	-10.8164
▁driving	-10.8164
▁mitteilen	-10.8168
sp	-10.817
▁Staates	-10.8171
▁Fähigkeit	-10.8172
verkehr	-10.8172
▁claim	-10.8174
▁Gefühl	-10.8175
▁head	-10.8178
▁hinzufügen	-10.8182
▁Visa	-10.8187
▁break	-10.8189
▁Are	-10.8195
▁highlighted	-10.8199
▁Leistung	-10.8202
▁wirkliche	-10.8202
▁Funktion	-10.8202
▁sodass	-10.8205
▁Wo	-10.8209
▁Finland	-10.8209
▁figure	-10.8213
▁bedeutende	-10.8213
gt	-10.8221
▁Latin	-10.8229
politische	-10.8232
▁Hindernisse	-10.8234
▁sichergestellt	-10.8237
▁genuinely	-10.8239
▁angebracht	-10.824
▁entweder	-10.8241
ca	-10.8249
▁Representative	-10.825
▁school	-10.8258
▁Ma	-10.8263
▁understood	-10.8268
▁Consequently	-10.8273
▁patients	-10.8273
▁Revision	-10.8277
▁vessels	-10.8278
▁befasst	-10.8282
▁amended	-10.8282
▁früheren	-10.8285
▁negotiation	-10.8285
▁Ent	-10.8286
▁1992	-10.8286
▁reicht	-10.8289
▁inzwischen	-10.8291
▁Volkes	-10.8294
▁europäisches	-10.8296
▁l	-10.8299
▁valuable	-10.83
▁Sudan	-10.8304
tag	-10.8305
▁resulting	-10.8309
▁recall	-10.8309
▁urban	-10.831
one	-10.8312
▁stelle	-10.8312
▁uniform	-10.8313
▁holding	-10.8314
▁Hinweis	-10.8316
▁Vorlage	-10.8316
▁Tibet	-10.8316
per	-10.8317
▁Durchsetzung	-10.8318
):	-10.8319
▁Rechnungshof	-10.8321
▁abge	-10.8321
▁feed	-10.8322
▁deficit	-10.8322
▁strategischen	-10.8324
▁Senkung	-10.8327
▁Geschlechter	-10.8332
COM	-10.8335
▁playing	-10.8338
ib	-10.8346
▁antworten	-10.8347
res	-10.8347
▁entstanden	-10.8349
▁gewinnen	-10.835
▁spend	-10.8352
▁beabsichtigt	-10.8356
▁ca	-10.8357
▁erhält	-10.8357
▁External	-10.8359
gehen	-10.8362
▁Bürokratie	-10.8364
▁Mechanismen	-10.8365
▁multi	-10.8368
▁referring	-10.8369
FI	-10.8371
▁einstimmig	-10.8372
▁Presse	-10.8372
▁Inter	-10.8376
▁Food	-10.8381
▁militärische	-10.8381
▁Liberalen	-10.8381
▁t	-10.8383
▁gegenwärtige	-10.8384
ex	-10.8384
▁Verletzung	-10.8394
▁investieren	-10.8397
▁anzunehmen	-10.8398
▁Internal	-10.8404
▁Anti	-10.8404
▁inadequate	-10.8409
▁Ideen	-10.841
▁apart	-10.8411
▁Ministerrat	-10.8413
▁Beiträge	-10.8416
▁Thursday	-10.8423
▁primary	-10.8423
▁waters	-10.8426
▁Demokraten	-10.843
▁interessiert	-10.8431
▁Hohe	-10.8435
▁grant	-10.844
▁White	-10.8441
▁vollständige	-10.8445
▁remove	-10.8446
▁television	-10.8446
▁Kontext	-10.8446
▁Petitions	-10.8447
▁umfassend	-10.8449
▁satisfactory	-10.8455
▁eight	-10.846
▁Menge	-10.8463
▁Identität	-10.8465
wirtschaftlicher	-10.8467
▁listen	-10.847
▁seeing	-10.847
▁moral	-10.847
▁Bush	-10.8473
ff	-10.8473
▁Donnerstag	-10.8474
▁gewähren	-10.8478
▁Grenze	-10.8479
▁code	-10.8479
enden	-10.848
▁learning	-10.8487
▁Beschluß	-10.8488
▁speziellen	-10.8491
▁bildet	-10.8492
ALE	-10.8493
ial	-10.8499
hancengleichheit	-10.85
sverletzungen	-10.8501
▁facts	-10.8502
Entschlossenheit	-10.8506
tergovernmental	-10.8509
▁Konflikte	-10.8509
▁denjenigen	-10.8515
Programm	-10.8517
▁läßt	-10.8521
▁exports	-10.8531
▁sustainability	-10.8534
▁letzter	-10.8536
▁passiert	-10.8547
▁legt	-10.8549
▁port	-10.8551
▁bewußt	-10.8556
▁Tabak	-10.8559
▁Umgang	-10.8562
▁Inkrafttreten	-10.8567
▁Common	-10.8571
▁Allgemeinen	-10.8571
▁Cooperation	-10.8571
▁qualified	-10.8571
▁angenommenen	-10.8577
▁suggested	-10.8577
▁Georgia	-10.8579
▁zone	-10.8582
▁neighbours	-10.8586
Umstrukturierung	-10.859
▁Before	-10.859
▁langfristige	-10.859
▁NRO	-10.859
si	-10.8594
▁Northern	-10.8596
▁Verfasser	-10.8597
▁daily	-10.86
ell	-10.8606
steuer	-10.8612
▁Ursachen	-10.8616
▁Gerade	-10.8618
nd	-10.862
▁erörtert	-10.8623
▁offenen	-10.8627
▁preparation	-10.8629
all	-10.8632
free	-10.8633
▁destruction	-10.8637
▁erstens	-10.8643
▁aufnehmen	-10.8645
▁ehemaligen	-10.8651
▁festzustellen	-10.8651
03	-10.8655
stellung	-10.8656
▁saw	-10.8657
▁constitute	-10.8658
▁drug	-10.8662
▁someone	-10.8665
▁türkischen	-10.8672
▁Once	-10.8677
▁depend	-10.8679
▁milk	-10.8679
▁Tisch	-10.8683
▁aktuelle	-10.8683
▁neighbouring	-10.8687
▁schwierige	-10.8688
▁built	-10.8689
▁Liberal	-10.869
ue	-10.8693
▁Allianz	-10.8693
▁angesehen	-10.8696
▁mangelnde	-10.8703
▁Nachdruck	-10.8703
▁plants	-10.8706
▁75	-10.8708
Christian	-10.8709
▁Greens	-10.8709
▁Schulz	-10.8711
▁überwinden	-10.8712
▁VAT	-10.8712
▁Betracht	-10.8712
▁meat	-10.8716
▁Ausgrenzung	-10.8717
▁intensive	-10.8718
▁deep	-10.8719
▁welches	-10.8722
▁Brok	-10.8722
▁Abfall	-10.8723
▁funktionieren	-10.8723
▁users	-10.8725
▁Premierminister	-10.8726
▁bewältigen	-10.8731
▁geraten	-10.8731
▁investigation	-10.8734
▁actively	-10.8735
red	-10.8737
▁vieler	-10.8738
▁opposite	-10.8741
▁version	-10.8743
▁Kapitel	-10.8745
▁elsewhere	-10.8745
▁Georgien	-10.875
▁genügend	-10.8751
▁maintained	-10.8752
▁assist	-10.8758
▁Safety	-10.8762
▁cars	-10.8762
▁leads	-10.8765
▁GDP	-10.877
▁zurückzuführen	-10.8775
qu	-10.8775
▁Finnland	-10.8779
05	-10.878
▁size	-10.8781
▁medicines	-10.8782
▁speeches	-10.8783
▁Souveränität	-10.8783
▁double	-10.8784
ts	-10.8786
▁Britain	-10.8788
▁ports	-10.8789
▁budgets	-10.879
▁2,	-10.8792
KOM	-10.8803
▁aktive	-10.8804
▁Sollte	-10.8808
▁Santer	-10.8812
▁Stockholm	-10.8817
▁Anlass	-10.8817
ging	-10.8817
sebene	-10.8818
▁Drittstaaten	-10.8823
▁transitional	-10.8828
▁Herstellung	-10.8831
▁Vertretern	-10.8834
▁Mrd	-10.8837
▁meant	-10.8839
ve	-10.8849
▁Teile	-10.885
▁aviation	-10.8855
▁obliged	-10.8856
▁interpretation	-10.8856
▁identify	-10.8858
▁sufficiently	-10.8858
▁Verfahrens	-10.886
▁getragen	-10.8861
▁Sektors	-10.8865
preise	-10.8868
▁determine	-10.887
▁geboten	-10.887
▁EC	-10.8872
▁requests	-10.8879
▁verweisen	-10.8879
▁Besuch	-10.8882
▁proportion	-10.8883
▁einzelne	-10.8884
▁Rußland	-10.8884
tro	-10.8884
▁prisoners	-10.8885
▁previously	-10.8886
▁schlecht	-10.8886
▁Abgeordneter	-10.8892
▁friends	-10.8893
▁thanking	-10.8896
▁weltweiten	-10.8896
▁Groß	-10.8898
▁satisfied	-10.8903
▁Nachhaltigkeit	-10.8908
▁zentrale	-10.891
▁12.00	-10.8913
▁extensive	-10.8915
▁Belgian	-10.8918
▁partly	-10.8921
▁indicated	-10.8926
▁Weiteren	-10.8929
▁Wesentlichen	-10.8932
▁Tampere	-10.8932
▁stock	-10.8936
▁greatly	-10.8938
ow	-10.8941
▁Verbrauchern	-10.8948
▁Verts	-10.8958
▁spread	-10.8959
▁check	-10.8967
sausschuß	-10.897
▁Dingen	-10.897
▁effektive	-10.8975
frage	-10.8975
▁considers	-10.8978
▁beraten	-10.8979
▁Erfüllung	-10.8981
▁identified	-10.8981
▁possibly	-10.8981
▁bit	-10.8981
art	-10.8982
▁Forum	-10.8983
▁hervorragende	-10.8986
▁oppose	-10.8991
▁Does	-10.8991
▁Verhandlungs	-10.8992
▁EIB	-10.9006
▁beings	-10.9011
▁zukünftigen	-10.9012
▁Zielsetzungen	-10.902
▁afternoon	-10.902
▁running	-10.902
▁sum	-10.9027
▁Ko	-10.9027
▁behaupten	-10.9027
▁Studien	-10.9027
▁tragic	-10.9029
▁reconstruction	-10.903
▁Nachbarn	-10.9032
▁possibilities	-10.9039
▁Kandidaten	-10.9041
▁jemand	-10.9044
pro	-10.9047
▁Anstieg	-10.9049
▁strength	-10.905
▁Perspektive	-10.9051
▁Helsinki	-10.9059
▁Without	-10.906
▁langfristig	-10.9062
ben	-10.9063
▁strategische	-10.9064
▁EZB	-10.9064
▁species	-10.9064
▁Funktionieren	-10.9065
▁Konvergenz	-10.9066
gel	-10.9066
▁vorsieht	-10.907
▁Bosnia	-10.9074
▁Burma	-10.9074
ian	-10.9076
▁sugar	-10.9078
ard	-10.9079
▁gestatten	-10.908
▁erlaubt	-10.9088
economic	-10.9091
▁zahlen	-10.9092
▁Thus	-10.9093
▁Gang	-10.9094
▁Ausmaß	-10.91
▁la	-10.91
▁gearbeitet	-10.9101
▁verabschieden	-10.9103
Fischereipolitik	-10.9104
▁Pro	-10.9105
▁Aufhebung	-10.9108
▁moreover	-10.9108
▁Leistungen	-10.911
▁intellectual	-10.9113
mittel	-10.9115
mer	-10.9117
▁dynamic	-10.9123
▁background	-10.9123
▁Stimmen	-10.9123
▁eindeutige	-10.9123
▁compulsory	-10.9126
▁Home	-10.9129
▁deserves	-10.913
log	-10.9134
▁Prozesses	-10.9134
▁Errichtung	-10.9138
▁geeignete	-10.9139
▁Tätigkeiten	-10.914
▁Intervention	-10.9142
▁launched	-10.9142
▁bedroht	-10.9142
▁himself	-10.9142
▁stands	-10.9143
▁completed	-10.9145
▁21.	-10.9148
▁stake	-10.9148
▁gesellschaft	-10.9148
▁nächster	-10.9149
▁vorliegen	-10.9151
▁zählen	-10.9151
▁Erreichung	-10.9152
▁imagine	-10.9152
▁El	-10.9157
▁competent	-10.9157
▁adapt	-10.9158
▁becomes	-10.9162
▁negativen	-10.9164
▁topic	-10.917
▁Pläne	-10.9177
related	-10.9178
▁zugrunde	-10.9181
▁beantworten	-10.9182
▁suffered	-10.9184
▁implications	-10.9187
▁rich	-10.9191
form	-10.9194
▁enorme	-10.9194
▁hearing	-10.9199
▁militärischen	-10.92
▁angewendet	-10.9207
▁jedenfalls	-10.9207
▁carrying	-10.9207
▁besonderer	-10.921
▁War	-10.921
▁Jeder	-10.9216
▁Sicherung	-10.9222
▁Mechanismus	-10.9222
ful	-10.9223
▁höchste	-10.9228
po	-10.923
▁genannte	-10.9234
▁unterbreitet	-10.9234
▁überaus	-10.9239
▁affects	-10.9239
▁attempts	-10.9246
▁Nachfrage	-10.9249
▁Post	-10.9249
▁diplomatic	-10.9252
▁sofern	-10.9255
▁facilities	-10.9257
▁Modernisierung	-10.9257
▁helped	-10.9263
▁Situationen	-10.9263
▁Positionen	-10.9266
▁Having	-10.9267
▁wesentlicher	-10.9268
▁Kroatien	-10.9269
▁went	-10.9271
▁mark	-10.9271
ish	-10.9277
▁konzentriert	-10.9277
▁complicated	-10.9279
▁verletzt	-10.928
▁Rechten	-10.9281
▁auswärtige	-10.9282
▁enforcement	-10.9282
▁Act	-10.9283
ac	-10.929
▁debated	-10.9291
▁Ausweitung	-10.9292
▁ausgerichtet	-10.9294
▁Papier	-10.9297
▁Secretary	-10.9297
▁southern	-10.9297
▁politisches	-10.9298
▁conducted	-10.93
▁freuen	-10.93
▁advertising	-10.9302
▁Krankheit	-10.9306
▁Grünbuch	-10.9309
▁Amt	-10.931
▁Verabschiedung	-10.9312
▁options	-10.9313
▁slow	-10.9314
▁Verbreitung	-10.9317
▁vorstellen	-10.9319
▁Minuten	-10.9326
▁Angst	-10.9327
▁Milch	-10.933
▁Nizza	-10.9331
▁Gewicht	-10.9332
▁Wahrung	-10.9337
▁Nice	-10.9337
▁poorest	-10.9338
gleich	-10.9339
pl	-10.9341
▁chosen	-10.9346
▁Mitgliedschaft	-10.9353
▁issued	-10.9355
▁Vorsitzenden	-10.9355
▁profit	-10.9364
▁formuliert	-10.9364
▁Potenzial	-10.9367
▁finanzieren	-10.9367
▁trotzdem	-10.9367
▁Augenblick	-10.9372
▁tragedy	-10.9382
▁ausüben	-10.9382
äu	-10.9384
▁Garantien	-10.9385
▁Prävention	-10.9387
▁gerechtfertigt	-10.9387
▁Ra	-10.9389
▁Nor	-10.9395
▁verbundenen	-10.9396
▁secret	-10.9397
▁centres	-10.9398
▁guaranteeing	-10.9399
▁societies	-10.9403
▁Regel	-10.9403
ß	-10.9404
▁Abhängigkeit	-10.9408
▁Klarheit	-10.9408
▁heavy	-10.9413
▁ratified	-10.9418
▁Hamas	-10.9418
▁Se	-10.942
▁proof	-10.9425
▁sozial	-10.9425
▁Ex	-10.9427
▁lernen	-10.9428
▁prospects	-10.9435
▁Gipfeltreffen	-10.9439
▁offenbar	-10.9441
▁Dokumente	-10.9443
▁Belgien	-10.9443
▁surely	-10.9444
mit	-10.9445
▁Mitarbeiter	-10.9445
▁vorher	-10.9445
▁dargelegt	-10.9446
▁EG	-10.9447
▁Beachtung	-10.9448
▁definitely	-10.945
▁Saddam	-10.9453
▁Zustand	-10.9454
▁4.	-10.9456
▁ausgeschlossen	-10.9459
▁Auge	-10.946
▁Einheit	-10.9462
▁Tourismus	-10.9462
▁whereby	-10.9472
isieren	-10.9473
▁believes	-10.9485
▁Regionalpolitik	-10.9491
▁accident	-10.95
▁exception	-10.9502
▁seeks	-10.9504
▁prior	-10.9504
▁müsste	-10.9505
▁Anmerkungen	-10.9506
▁fassen	-10.951
▁enhance	-10.9514
▁Mängel	-10.9515
▁Kuba	-10.952
▁Faktor	-10.9523
sprinzip	-10.9527
▁Netz	-10.9529
▁1993	-10.953
▁hergestellt	-10.9531
▁Serbien	-10.9534
▁Belgium	-10.954
▁wann	-10.9541
▁zugestimmt	-10.9546
hin	-10.9548
▁Anhörung	-10.9548
ende	-10.9551
▁schneller	-10.9553
by	-10.9554
▁anerkennen	-10.9554
▁erlassen	-10.9554
▁Stunden	-10.9556
▁spite	-10.9556
▁hinweg	-10.9557
▁Programmen	-10.956
▁45	-10.9561
▁Auto	-10.9563
▁Emissionen	-10.9566
Der	-10.9566
▁Kontakt	-10.9568
▁Vorstellung	-10.957
▁schemes	-10.9576
▁replace	-10.9576
▁angemessenen	-10.9578
▁erteilt	-10.9578
▁constant	-10.9578
problem	-10.9579
▁Luxemburg	-10.9579
▁bedauere	-10.9582
▁mistake	-10.9582
▁hierbei	-10.9583
▁openness	-10.9585
".	-10.9586
▁umfasst	-10.9592
▁Mehrwertsteuer	-10.9593
▁staatliche	-10.9593
▁rechtzeitig	-10.9595
▁quote	-10.9595
▁sets	-10.9597
Richtlinie	-10.9597
▁gelingt	-10.9597
▁keineswegs	-10.9597
▁zukünftige	-10.9598
▁Socialists	-10.9599
▁intentions	-10.9601
DA	-10.9602
▁Abbau	-10.9603
▁worldwide	-10.9605
▁Neben	-10.9606
▁kontrollieren	-10.9608
▁bekräftigt	-10.9608
▁Wissenschaft	-10.9609
▁gap	-10.9612
▁Dafür	-10.9613
▁eingerichtet	-10.9615
tende	-10.9618
▁Dadurch	-10.9624
scale	-10.9624
wing	-10.9627
▁zugänglich	-10.9628
▁Besteuerung	-10.9628
▁wealth	-10.9632
▁Verteilung	-10.9639
▁entscheidenden	-10.9639
▁Problematik	-10.964
▁addressing	-10.9643
▁Arab	-10.9648
▁sorry	-10.9649
▁Hungary	-10.9654
▁purely	-10.966
▁effiziente	-10.9666
▁Vertrages	-10.9668
▁belief	-10.9669
▁considerations	-10.9669
▁schwedischen	-10.967
▁müssten	-10.9674
▁entwickelten	-10.9678
▁reichen	-10.968
▁betreiben	-10.9682
▁endgültige	-10.9684
▁Time	-10.9687
▁auswirken	-10.9693
▁gegenseitige	-10.9695
▁Wähler	-10.9701
▁ablehnen	-10.9703
▁lenken	-10.9706
▁Under	-10.9707
▁Arzneimittel	-10.9708
▁hit	-10.971
▁Gesellschaften	-10.9712
▁Agenturen	-10.9717
▁laufen	-10.9719
▁successfully	-10.9721
▁Mehr	-10.9722
▁Noch	-10.9726
▁überlassen	-10.9728
▁infolge	-10.9732
▁reagiert	-10.9733
▁Partnership	-10.9733
▁cities	-10.9733
ud	-10.9733
▁unanimously	-10.9735
▁Versorgung	-10.9736
▁praktische	-10.9737
▁Begründung	-10.9738
▁worst	-10.9743
▁abgegeben	-10.9744
▁governing	-10.9746
▁numbers	-10.9747
iz	-10.9747
▁hängt	-10.9749
▁essentially	-10.9753
▁solely	-10.9755
▁liberal	-10.9759
COD	-10.9761
mut	-10.9768
▁reiterate	-10.977
▁Erwägung	-10.977
▁demanding	-10.9775
▁opened	-10.9777
SK	-10.9778
▁Where	-10.9779
▁Galileo	-10.978
▁stattfindet	-10.978
zen	-10.9781
rum	-10.9784
▁verboten	-10.9785
▁Finanzkrise	-10.9788
▁ehrlich	-10.9791
▁dispute	-10.9791
▁erteilen	-10.9794
▁stolz	-10.9796
▁Erarbeitung	-10.9796
▁Betriebe	-10.9804
▁hundreds	-10.9812
Parliament	-10.9813
▁worrying	-10.9819
ausschusses	-10.9821
▁inakzeptabel	-10.9822
▁Danish	-10.9827
▁allocation	-10.9838
lage	-10.9843
▁Auftrag	-10.9844
▁Umfeld	-10.9844
▁bound	-10.9848
▁easily	-10.9848
▁correctly	-10.985
▁extending	-10.9851
▁Schäden	-10.9854
arbeit	-10.9857
5-	-10.9857
▁vertritt	-10.986
ork	-10.9861
▁Zwei	-10.9862
▁producing	-10.9862
▁Akteure	-10.9862
▁Renten	-10.9864
▁reduzieren	-10.9864
▁Steuerzahler	-10.9866
▁langen	-10.9869
dienstleistungen	-10.987
▁stressed	-10.987
▁green	-10.9871
▁acting	-10.9873
▁harmful	-10.9875
▁Betrag	-10.9875
▁pensions	-10.988
▁Wein	-10.988
▁BIP	-10.988
▁foremost	-10.988
▁Weißbuch	-10.988
▁Br	-10.9889
weg	-10.989
▁Nord	-10.9891
▁stattgefunden	-10.9902
▁Formulierung	-10.9906
▁Bestimmung	-10.9906
sprozesses	-10.9907
ausschuss	-10.991
▁generation	-10.9911
▁Just	-10.9912
▁erarbeitet	-10.9917
▁Ausbeutung	-10.9918
▁phenomenon	-10.9918
▁besitzt	-10.9918
▁Gemeinschaften	-10.9918
▁Menschenrechten	-10.9921
ntergovernmental	-10.9922
▁Garantie	-10.9925
▁thorough	-10.9925
▁cuts	-10.9926
▁Frist	-10.9928
▁Amerika	-10.9928
▁rapidly	-10.9928
▁zuerst	-10.9929
▁granting	-10.9931
▁langsam	-10.9936
▁Verordnungen	-10.9937
▁Ausgleich	-10.9938
▁Both	-10.9939
▁beef	-10.994
▁Argumente	-10.9943
ni	-10.9943
▁save	-10.9944
▁Schulden	-10.9945
▁Partnern	-10.9946
▁offene	-10.9946
▁Planung	-10.9948
isten	-10.9954
▁heritage	-10.9955
▁Forschungs	-10.9956
▁Ausführung	-10.996
▁Trotzdem	-10.9961
▁geographical	-10.9963
▁respektieren	-10.9965
▁Kann	-10.9966
▁Dauer	-10.9966
▁remaining	-10.9967
▁Mar	-10.9968
▁Alternative	-10.9974
mi	-10.9975
▁players	-10.9976
▁taxpayers	-10.9983
uoten	-10.9983
▁Minderheit	-10.9985
04	-10.9986
▁untersuchen	-10.9987
relatively	-10.9987
▁register	-10.9995
▁Bosnien	-10.9998
▁chairman	-10.9998
▁refers	-11.0011
wesen	-11.0012
▁Joint	-11.0014
▁tools	-11.0016
▁direkte	-11.0019
▁enabling	-11.002
▁Zahlungen	-11.002
▁ideal	-11.002
od	-11.0022
▁depends	-11.0022
▁core	-11.0023
sverhandlungen	-11.0024
▁decades	-11.0031
▁Jahresbericht	-11.0034
▁regelmäßig	-11.0035
▁profits	-11.0036
▁advice	-11.0036
▁threats	-11.0037
▁promised	-11.0039
▁considerably	-11.0042
▁skills	-11.0044
so	-11.0046
▁achievement	-11.0047
▁Cuba	-11.0049
▁Wichtigkeit	-11.0058
▁sobald	-11.0058
▁claims	-11.0059
gemeinschaft	-11.0059
▁anzuwenden	-11.006
▁Referendum	-11.0062
)).	-11.0066
▁ratifiziert	-11.0068
▁Left	-11.0069
▁bank	-11.0069
▁jener	-11.0071
▁picture	-11.0074
▁Aspekten	-11.0075
▁Dienstleistung	-11.0078
▁mittlere	-11.0079
wide	-11.0084
▁bureaucracy	-11.009
präsident	-11.0091
fi	-11.0092
▁französische	-11.0092
▁verstärkte	-11.0096
▁deals	-11.0101
▁Ausland	-11.0102
▁feeling	-11.0103
▁reaction	-11.0104
tal	-11.0109
▁suitable	-11.0112
▁weight	-11.0113
bo	-11.0114
▁manche	-11.012
▁environmentally	-11.0126
▁Growth	-11.0128
▁advantages	-11.0133
▁Kinnock	-11.0133
vorschriften	-11.0136
▁reliable	-11.0139
▁prison	-11.0141
▁beseitigen	-11.0144
▁Wichtig	-11.0145
▁vernünftige	-11.0152
▁eingeräumt	-11.0155
▁proud	-11.0156
▁ECB	-11.0156
▁launch	-11.0158
▁performance	-11.0161
▁Fleisch	-11.0161
sh	-11.0162
▁beschließen	-11.0164
▁declared	-11.0165
▁gemeinsames	-11.0168
▁höchst	-11.0171
▁verändert	-11.0172
▁Beratungen	-11.0175
▁Aussage	-11.018
▁passenger	-11.0181
▁experienced	-11.0184
staaten	-11.0186
▁vorhin	-11.0187
go	-11.0191
▁37	-11.0192
▁charges	-11.0195
▁Monti	-11.0196
▁Co	-11.0198
▁Existenz	-11.0199
▁Behörde	-11.0199
pt	-11.0201
▁import	-11.0203
▁admit	-11.021
▁Unternehmens	-11.021
▁savings	-11.0211
▁powerful	-11.0213
▁fortgesetzt	-11.0216
▁regrettable	-11.0216
▁westlichen	-11.0216
ping	-11.0218
ap	-11.0226
LT	-11.0227
▁ignore	-11.0227
sverfahrens	-11.023
▁mehrfach	-11.023
▁heading	-11.0233
▁clarity	-11.0238
▁wording	-11.0238
▁32	-11.0239
▁paying	-11.0244
▁Beamten	-11.025
▁violation	-11.0253
▁Kompromiß	-11.0254
rück	-11.0257
▁Fassung	-11.026
▁protocol	-11.0264
▁manufacturers	-11.0265
▁Welthandels	-11.0267
Rural	-11.0268
▁Prozent	-11.0271
▁focused	-11.0272
▁supposed	-11.0274
▁Netze	-11.0277
▁vorrangig	-11.0278
▁Schutzes	-11.0285
▁erlauben	-11.0287
ssysteme	-11.0288
▁Abschluß	-11.0293
▁historical	-11.0297
▁Reise	-11.0299
▁Jahrhundert	-11.0305
▁willingness	-11.0305
▁Christian	-11.0305
kosten	-11.0307
▁gemeinsamer	-11.0307
▁contributed	-11.0308
▁protest	-11.0309
▁Ergebnissen	-11.0313
▁Authority	-11.0315
▁verdienen	-11.0315
▁konstruktive	-11.0319
▁Follow	-11.0321
▁Gestatte	-11.0321
▁Well	-11.0325
▁crises	-11.0326
tri	-11.0326
▁kontrolliert	-11.0326
hi	-11.0333
▁fruit	-11.0336
▁anwenden	-11.0343
▁Zuständigkeiten	-11.0344
▁texts	-11.0344
▁irische	-11.0347
▁stay	-11.0351
▁Hersteller	-11.0352
▁convention	-11.0355
▁konsequent	-11.036
▁unabhängige	-11.0361
▁favourable	-11.0362
▁entered	-11.0364
▁Offenheit	-11.0365
ill	-11.0366
▁schlagen	-11.0368
grund	-11.0369
▁emphasised	-11.037
initiative	-11.0372
▁biggest	-11.0376
▁intervene	-11.0377
▁unabhängigen	-11.0378
▁arise	-11.038
▁überwachen	-11.0382
▁applicable	-11.0387
▁festlegen	-11.0388
▁Montenegro	-11.039
▁Jugendlichen	-11.0393
▁encouraged	-11.0393
▁Energiepolitik	-11.0394
▁She	-11.0394
▁spät	-11.0395
▁Niederlanden	-11.0395
▁eye	-11.0396
▁undertakings	-11.0398
▁auftreten	-11.0401
▁generell	-11.0404
▁justify	-11.0406
▁vorzunehmen	-11.0407
▁Management	-11.0408
com	-11.0409
▁article	-11.041
sbericht	-11.0412
▁laut	-11.0415
▁Association	-11.0416
▁russischen	-11.0419
▁healthy	-11.0427
▁acquis	-11.0427
CNS	-11.0427
▁engage	-11.0427
▁summer	-11.0427
▁Anträge	-11.0431
▁communications	-11.0432
▁beibehalten	-11.0438
▁welchem	-11.0438
▁Uns	-11.044
ton	-11.0447
▁wenden	-11.0449
▁modified	-11.0449
▁36	-11.045
▁reflected	-11.0452
▁basiert	-11.0452
▁contract	-11.0453
▁Assoziierung	-11.0455
▁legitimacy	-11.0455
▁Energiequellen	-11.0459
▁vorgehen	-11.046
▁Madrid	-11.046
▁Titel	-11.0461
▁gegenseitigen	-11.0461
svorschläge	-11.0461
▁regarded	-11.0465
▁unnecessary	-11.0466
▁2007-2013	-11.0466
▁Sommer	-11.0466
▁erörtern	-11.0472
▁rund	-11.0473
▁Macedonia	-11.0474
▁Slovakia	-11.0474
ors	-11.0475
▁Wirksamkeit	-11.0477
▁Einschätzung	-11.0478
Ebene	-11.0479
▁nahe	-11.048
▁Verwaltungs	-11.0483
ide	-11.0488
szusammenarbeit	-11.049
▁increases	-11.0491
ich	-11.0492
plan	-11.0495
▁whereas	-11.0498
▁fortsetzen	-11.05
▁persönliche	-11.05
▁Parliamentary	-11.0502
▁Taten	-11.0503
▁Organ	-11.0505
▁Polish	-11.0506
▁wahren	-11.0507
▁abschließend	-11.0507
▁certainty	-11.0508
▁internen	-11.051
über	-11.0517
▁ships	-11.0519
▁Verlust	-11.0519
▁bewerten	-11.0521
▁erwiesen	-11.0524
▁news	-11.0524
ium	-11.0525
▁werte	-11.0526
▁Then	-11.053
▁Vision	-11.0534
▁Vielzahl	-11.0534
▁doubts	-11.0548
▁negotiated	-11.055
▁Phänomen	-11.0551
▁Morgen	-11.0551
▁vereinbart	-11.0552
▁Wird	-11.0556
▁unerlässlich	-11.0557
▁Denmark	-11.0557
sentwurf	-11.0557
▁Kohäsion	-11.0558
▁historischen	-11.0558
▁Rassismus	-11.0562
▁removed	-11.0563
▁constitutes	-11.0566
▁science	-11.0567
ization	-11.0567
▁incorporated	-11.0572
▁Widerstand	-11.0574
▁supplementary	-11.0574
▁Legislativ	-11.0576
▁demokratischer	-11.0577
if	-11.0577
▁Dokumenten	-11.0578
▁inflation	-11.0579
▁blind	-11.058
▁competences	-11.0581
▁succeeded	-11.0581
▁affecting	-11.0587
▁griechischen	-11.0592
▁Ausschüsse	-11.0593
30	-11.0599
▁Einwanderer	-11.0601
▁enthaltenen	-11.0602
▁reaching	-11.0609
time	-11.0613
▁Häfen	-11.0614
ious	-11.0622
▁sp	-11.0624
▁sake	-11.0626
▁Over	-11.0627
▁south	-11.0627
▁läuft	-11.0628
▁noon	-11.0631
▁Journalisten	-11.0634
▁Blair	-11.0637
erstatters	-11.0638
▁Stabilitäts	-11.0639
hl	-11.064
▁laufenden	-11.0642
▁schools	-11.0649
▁harm	-11.065
▁höheren	-11.0651
▁mal	-11.0652
▁count	-11.0656
▁vast	-11.066
▁Beziehung	-11.0667
▁applicant	-11.0667
▁everybody	-11.0671
▁airlines	-11.0674
▁simplification	-11.0677
▁Randlage	-11.0677
▁Service	-11.0679
▁Fisch	-11.0679
▁Flug	-11.068
▁island	-11.0681
▁courts	-11.0683
unterschiedliche	-11.0684
▁Vorredner	-11.0685
▁Tourism	-11.0687
▁weist	-11.0689
▁firms	-11.0691
transatlantische	-11.0692
▁applications	-11.0694
▁Ganz	-11.0694
▁consequence	-11.0696
▁radical	-11.0697
▁fairly	-11.0698
▁durchzusetzen	-11.0703
▁obtained	-11.0703
▁Gestaltung	-11.0707
▁Dänemark	-11.0712
▁Vertretung	-11.0712
▁zugute	-11.0712
bel	-11.0716
▁Civil	-11.0717
sätze	-11.0717
▁Strom	-11.0718
▁religion	-11.0719
▁Experten	-11.0721
▁reinforce	-11.0729
ator	-11.073
▁wirklichen	-11.0731
▁couple	-11.0731
▁ergibt	-11.0731
▁restore	-11.0736
▁größer	-11.0737
▁explanation	-11.0737
▁ernsthafte	-11.0738
▁besitzen	-11.0741
▁Heimatland	-11.0753
▁negotiate	-11.0753
▁Grundsätzen	-11.0759
▁Ratsvorsitzes	-11.076
▁jüngste	-11.0761
▁Volkswirtschaft	-11.0762
▁commit	-11.0768
▁Tod	-11.0769
▁citizenship	-11.077
▁Bis	-11.0771
▁Wachstums	-11.0774
▁Patent	-11.0776
▁digital	-11.0781
▁fördert	-11.0781
▁Stabilitätspakt	-11.0781
▁erscheinen	-11.0787
▁Nigeria	-11.0789
▁mussten	-11.0791
▁schließe	-11.0791
wirtschaftliche	-11.0795
▁weak	-11.0798
▁zustande	-11.0799
▁ersetzen	-11.0804
▁utmost	-11.0804
▁zusätzlich	-11.0807
▁begrenzt	-11.0809
▁te	-11.081
▁400	-11.081
▁chain	-11.081
▁Betrug	-11.0815
▁tests	-11.0819
▁Mazedonien	-11.0822
▁leader	-11.0824
▁verehrten	-11.0826
▁deserve	-11.0826
▁Konvention	-11.0834
▁sought	-11.0836
▁mobile	-11.0836
▁Vorgehensweise	-11.0839
▁disabled	-11.084
▁einführen	-11.0844
▁Industry	-11.0845
▁vernünftig	-11.0848
▁eastern	-11.085
▁boost	-11.085
▁piece	-11.0852
▁alcohol	-11.0856
▁schweren	-11.0861
▁deeply	-11.0867
▁effizient	-11.0868
▁gelingen	-11.0869
ick	-11.0869
▁bestimmen	-11.0871
▁ausgehen	-11.0873
▁6.	-11.0875
▁excluded	-11.0878
▁Schlußfolgerung	-11.0881
▁Lateinamerika	-11.0881
▁targeted	-11.0884
▁reservations	-11.0886
▁regulate	-11.0887
▁ambition	-11.0889
setzen	-11.089
▁Gebrauch	-11.0892
▁retain	-11.0893
▁erneuerbaren	-11.09
▁afraid	-11.0904
▁bereitet	-11.091
▁Rückkehr	-11.091
▁Verfolgung	-11.0912
▁Raums	-11.0914
▁Mo	-11.0914
▁vorhandenen	-11.0921
▁Dr	-11.0921
ding	-11.0925
▁Fragestunde	-11.0925
▁7.	-11.0926
▁keinem	-11.0926
▁respects	-11.0927
▁Abstimmungen	-11.0927
▁presenting	-11.0928
▁sagten	-11.0929
▁willkommen	-11.0938
▁Gründung	-11.094
▁Produkten	-11.0944
▁Ost	-11.0949
▁Ausbau	-11.096
▁Ca	-11.0965
▁Mittelmeerraum	-11.0967
▁buy	-11.0968
▁smaller	-11.0969
fr	-11.0972
▁Sehr	-11.0976
ja	-11.0978
▁kleiner	-11.0978
▁lieber	-11.0978
▁Fa	-11.0979
▁wage	-11.098
▁Hussein	-11.0981
▁forum	-11.0984
▁unterbreiten	-11.0987
▁treaties	-11.0987
▁prospect	-11.0989
▁charge	-11.099
▁nehme	-11.0992
▁Taiwan	-11.0992
▁Betrieb	-11.0992
▁Schuld	-11.0994
▁Citizens	-11.0994
▁Grenz	-11.0998
▁marketing	-11.0998
▁aside	-11.1004
▁Culture	-11.1005
▁necessarily	-11.1005
▁verändern	-11.1005
tic	-11.1007
▁Generation	-11.1013
▁ökologischen	-11.1014
ice	-11.1018
lei	-11.1019
▁battle	-11.1023
▁falsche	-11.1024
▁greenhouse	-11.1029
▁jointly	-11.103
▁eliminate	-11.103
▁untersucht	-11.103
ized	-11.1033
▁author	-11.1033
▁zweiter	-11.1039
▁befürworte	-11.104
▁Gerichtshofs	-11.1042
▁5.	-11.1043
▁Feststellung	-11.1049
ungs	-11.105
▁tonnes	-11.1052
▁Tausende	-11.1053
sfragen	-11.1053
▁drafting	-11.1058
▁endgültigen	-11.106
▁aufzu	-11.1064
▁respektiert	-11.107
▁raising	-11.1073
▁Erst	-11.1074
▁leaving	-11.1082
▁regionaler	-11.1086
sbeziehungen	-11.1089
▁Bewegung	-11.109
5-03	-11.1091
08	-11.1091
▁electoral	-11.1094
▁Freihandel	-11.1095
ability	-11.1095
▁erfordern	-11.1096
ugoslavia	-11.1096
▁Kohärenz	-11.11
▁behauptet	-11.1102
▁Handlung	-11.1107
▁alte	-11.1107
▁fleet	-11.1107
▁Zucker	-11.1108
az	-11.1109
▁äußerster	-11.111
va	-11.111
▁vornehmen	-11.1113
▁Klimawandels	-11.1122
▁wahr	-11.1124
▁oben	-11.1128
▁ausreichende	-11.1141
▁meaning	-11.1141
da	-11.1142
santräge	-11.1144
▁red	-11.1147
▁ethical	-11.1149
▁angekündigt	-11.1152
▁persönlichen	-11.1156
▁erwähnten	-11.1156
▁credible	-11.1161
▁Haushaltsplans	-11.1165
▁San	-11.1166
▁ordinary	-11.1167
▁nationals	-11.1167
▁vorliegt	-11.1168
krise	-11.1168
▁Tier	-11.1172
▁33	-11.1172
▁pact	-11.1173
▁terrible	-11.1179
▁organisierte	-11.1185
▁suggestions	-11.1185
▁sogenannten	-11.1186
▁declare	-11.1186
▁preserve	-11.1186
▁surprised	-11.1188
ek	-11.1189
10	-11.1193
▁struggle	-11.1197
▁EP	-11.1198
▁Protokolls	-11.1199
▁Fang	-11.1203
▁hopes	-11.1203
▁Bureau	-11.1203
Ver	-11.1206
▁clarification	-11.1215
▁bilateralen	-11.1215
▁repeatedly	-11.1218
▁cancer	-11.1218
▁gebilligt	-11.1219
▁w	-11.1222
▁carbon	-11.1226
▁outstanding	-11.123
▁Haushaltsjahr	-11.1236
▁bureaucratic	-11.1237
fer	-11.1241
▁Tieren	-11.1243
Be	-11.125
▁Genau	-11.1252
▁Mehrwert	-11.1263
▁Argument	-11.1265
▁incentives	-11.1266
▁Anreize	-11.1268
▁Ausnahmen	-11.1269
▁Paris	-11.1269
▁representation	-11.127
dienste	-11.1272
sbehörden	-11.1275
▁soweit	-11.1277
▁senken	-11.1278
▁zugelassen	-11.1279
▁clean	-11.1281
▁yes	-11.1285
▁Terroristen	-11.1286
▁erhoben	-11.1288
ize	-11.1289
▁Gebäude	-11.1291
▁familiar	-11.1295
▁Luftfahrt	-11.1295
▁settlement	-11.1295
▁OECD	-11.13
▁valid	-11.13
▁Marokko	-11.1301
▁beantwortet	-11.1301
▁beobachten	-11.1301
eu	-11.1302
▁expressing	-11.1305
▁Beurteilung	-11.1307
isiert	-11.1308
cht	-11.1309
▁Insel	-11.1311
▁unzureichend	-11.1312
▁Slowakei	-11.1313
▁Unterzeichnung	-11.1313
▁Kompetenz	-11.1317
▁checks	-11.132
hand	-11.132
▁importantly	-11.132
▁arbeitet	-11.1321
▁Frattini	-11.1325
▁examined	-11.1327
▁armed	-11.133
▁ähnliche	-11.1333
▁Zahlung	-11.1334
▁Investition	-11.1335
▁Äußerungen	-11.1336
Gleichbehandlung	-11.1339
▁nachdenken	-11.1341
▁spring	-11.1344
▁einfache	-11.1344
▁undertake	-11.1346
▁schwere	-11.1352
▁erarbeiten	-11.1354
ga	-11.1355
▁buildings	-11.1355
▁bisherigen	-11.1357
▁showing	-11.1359
▁combined	-11.1359
▁declarations	-11.1362
▁healthcare	-11.1369
▁Wissenschaftler	-11.1373
▁forest	-11.1374
▁employers	-11.1374
▁mid	-11.138
▁überprüft	-11.1381
▁stance	-11.1381
▁extrem	-11.1382
▁Kompetenzen	-11.1383
▁verwiesen	-11.1386
▁hingegen	-11.1387
▁eyes	-11.1388
▁hart	-11.139
▁beendet	-11.1394
▁shape	-11.1395
▁verständlich	-11.1397
▁grow	-11.1398
▁amend	-11.1402
▁HIV	-11.1406
▁Tonnen	-11.141
▁Grundlagen	-11.1417
▁erwähnte	-11.1417
▁auszu	-11.1418
▁pleasure	-11.1418
▁erheblichen	-11.142
▁suspended	-11.142
▁Ehre	-11.1432
▁Laeken	-11.1436
▁Zwar	-11.1437
▁Ro	-11.1437
▁Bananen	-11.1438
▁complaints	-11.1442
▁innere	-11.1444
▁einfacher	-11.1447
▁Meeres	-11.1448
▁unemployed	-11.145
▁erfolgreiche	-11.1451
▁exceptional	-11.1454
▁hardly	-11.1454
▁nützlich	-11.1456
▁150	-11.1457
▁Terror	-11.1459
▁grundlegender	-11.146
ged	-11.146
▁prefer	-11.1467
Christdemokraten	-11.1468
▁Drittel	-11.1468
▁opt	-11.1468
▁shortcomings	-11.1469
ence	-11.1473
▁erinnere	-11.1474
▁Eurostat	-11.148
▁kritisiert	-11.1486
▁Morocco	-11.1489
▁lie	-11.1489
▁nearly	-11.1491
▁leistet	-11.1493
▁trend	-11.1494
▁Free	-11.1495
▁erstellt	-11.1502
▁transactions	-11.1502
▁underline	-11.1505
▁Werbung	-11.1505
▁hilfreich	-11.1505
▁anzu	-11.1513
▁deadline	-11.1513
programme	-11.1516
▁existiert	-11.1518
▁Überarbeitung	-11.153
raum	-11.1533
▁afford	-11.1537
▁creates	-11.1537
▁95	-11.1538
sprogramme	-11.1538
▁revised	-11.1538
▁broader	-11.1539
▁teilt	-11.154
▁gehe	-11.1543
▁subjects	-11.1549
saustausch	-11.1558
▁48	-11.1558
▁EVP	-11.1562
▁Albania	-11.1563
▁beizutragen	-11.1564
▁Finanzmittel	-11.1564
▁Datenschutz	-11.1567
▁geprägt	-11.1568
▁percentage	-11.1568
▁foundations	-11.1573
▁Kommissare	-11.1579
▁fresh	-11.158
▁Ebenen	-11.1585
▁turned	-11.1587
off	-11.1589
▁Aufsicht	-11.1593
▁biodiversity	-11.1593
▁delays	-11.1595
▁reflects	-11.1596
▁Licht	-11.1601
▁Projekten	-11.1601
▁relate	-11.1604
▁eröffnet	-11.1606
ank	-11.1607
EEC	-11.1611
▁bearing	-11.1612
▁ill	-11.1612
▁ärmsten	-11.162
▁Verlauf	-11.162
▁Or	-11.1621
▁quota	-11.1622
▁arrest	-11.1623
▁dieselben	-11.1623
▁transatlantic	-11.1625
▁organise	-11.1626
▁expense	-11.1627
▁historische	-11.1628
satz	-11.1636
▁Albanien	-11.1637
▁Verlängerung	-11.1637
▁deutliche	-11.1639
▁spanische	-11.1639
▁zunehmende	-11.164
▁angeblich	-11.165
punkt	-11.1651
lecommunications	-11.1652
dauerlicherweise	-11.1655
▁coordinate	-11.1658
▁bestand	-11.166
halten	-11.1662
▁Grundfreiheiten	-11.1663
▁verzeichnen	-11.1663
▁zerstört	-11.1663
strategie	-11.1667
▁belong	-11.1667
▁oftmals	-11.1669
▁Privat	-11.1669
▁demokratisch	-11.167
▁fewer	-11.1672
▁Moldova	-11.1675
▁Schreiben	-11.1675
▁category	-11.1675
▁fire	-11.1678
▁Ar	-11.1679
bu	-11.1679
▁selten	-11.1682
▁youth	-11.1684
▁Auseinandersetz	-11.1688
▁honest	-11.1689
▁below	-11.1692
▁economically	-11.1695
Vertrag	-11.1696
▁direkten	-11.1696
▁leiten	-11.17
▁Rahmenprogramm	-11.1703
▁ordnungsgemäß	-11.1706
▁fit	-11.1707
▁widespread	-11.1707
▁abgeben	-11.1709
▁educational	-11.171
▁insofern	-11.1714
▁Menschenhandel	-11.1719
▁abolition	-11.172
Demokratisierung	-11.1722
▁minute	-11.1724
ative	-11.1726
▁aircraft	-11.1726
▁liability	-11.1726
che	-11.1727
▁34	-11.1728
▁rational	-11.1731
▁Eurozone	-11.1735
▁praktischen	-11.1737
▁außen	-11.1737
▁drafted	-11.1739
▁Darfur	-11.174
▁eintreten	-11.1741
▁warmly	-11.1742
▁undermine	-11.1745
▁Entschließungen	-11.1746
▁Zulassung	-11.1747
tor	-11.1748
▁repeated	-11.1748
▁Martin	-11.1749
▁night	-11.1752
▁stärksten	-11.1758
▁vermitteln	-11.1759
▁Zunahme	-11.176
▁candidates	-11.1762
▁Erinnerung	-11.1765
▁penalties	-11.1791
▁restrict	-11.1791
ordnung	-11.1796
▁aufbauen	-11.1797
▁Schluß	-11.18
▁preparations	-11.1801
▁marine	-11.1804
▁ausgegeben	-11.1813
acht	-11.1816
▁none	-11.1817
svertrag	-11.1818
▁4,	-11.182
▁restricted	-11.1821
ür	-11.1823
▁resulted	-11.1824
▁hervorragenden	-11.1826
▁erforderliche	-11.1827
▁track	-11.183
▁umgehen	-11.1831
▁treat	-11.1834
▁Wandel	-11.1834
▁English	-11.1836
▁Islamic	-11.1838
▁ausgearbeitet	-11.1838
▁freely	-11.184
▁railway	-11.184
▁Hilfs	-11.1841
paket	-11.1846
▁solch	-11.1847
▁Bewältigung	-11.1849
▁expensive	-11.1849
▁authorisation	-11.1849
▁natürlichen	-11.1853
▁beträchtliche	-11.1853
▁Swoboda	-11.1855
▁Centre	-11.1856
▁condemned	-11.1856
▁Kon	-11.1856
▁Besonders	-11.1862
▁Veränderung	-11.1863
▁einhalten	-11.1863
▁Rindfleisch	-11.1865
ei	-11.1867
▁einzubeziehen	-11.1875
▁Inneres	-11.1875
▁gefragt	-11.1875
kraft	-11.1876
entwicklung	-11.1878
▁explained	-11.1879
▁motor	-11.1881
▁civilian	-11.1887
▁Präsidium	-11.189
uch	-11.189
amp	-11.1894
▁unfortunate	-11.1897
▁Washington	-11.1901
▁tackling	-11.1901
▁withdraw	-11.1901
▁bedauern	-11.1905
▁trial	-11.1906
▁racism	-11.1907
▁Asien	-11.1907
▁gegebenenfalls	-11.1907
▁disagree	-11.1909
▁larger	-11.191
▁kinds	-11.1911
▁gleichermaßen	-11.1914
▁unique	-11.1914
▁Märkten	-11.1914
▁invite	-11.1916
▁weg	-11.1916
▁mittel	-11.1916
▁Aktionsprogramm	-11.1919
▁computer	-11.192
▁flow	-11.192
▁Generationen	-11.1924
▁gekennzeichnet	-11.1927
▁satisfaction	-11.1927
▁outset	-11.1927
▁became	-11.1933
▁lasting	-11.1934
▁faith	-11.1937
▁processing	-11.1937
▁Jugoslawien	-11.1938
▁Bolkestein	-11.194
▁twenty	-11.194
▁Zwischen	-11.194
▁sprach	-11.1942
▁na	-11.1945
sprogramm	-11.1946
▁door	-11.1946
▁Palacio	-11.1946
▁Frontex	-11.1946
Abkommen	-11.1949
▁schlage	-11.1953
▁Kürze	-11.1953
▁Milosevic	-11.1953
▁Beschäftigten	-11.1959
▁appointment	-11.196
▁Fortsetzung	-11.1961
▁deutsche	-11.1961
▁army	-11.1967
ländern	-11.1968
▁collaboration	-11.1972
▁unity	-11.1975
rate	-11.1977
▁tatsächlichen	-11.1978
EWG	-11.1979
▁Barnier	-11.1979
▁erläutern	-11.1979
▁lessons	-11.1986
sehen	-11.1987
▁musste	-11.1987
rt	-11.1989
▁Clearly	-11.1993
▁wirtschafts	-11.1993
▁Pa	-11.1995
systeme	-11.1998
▁Stärke	-11.1999
▁occurred	-11.1999
▁Schicksal	-11.2005
▁Di	-11.2006
pi	-11.2006
▁gefährden	-11.201
▁recommend	-11.2012
▁Bo	-11.2016
▁derjenigen	-11.2018
▁distinction	-11.2019
▁voller	-11.2026
▁city	-11.2026
▁Ratspräsidenten	-11.2027
▁gradually	-11.2027
bekämpfung	-11.2029
schen	-11.2029
smitglied	-11.203
▁widely	-11.2032
▁Beschäftigungs	-11.2036
▁abzielen	-11.2038
▁Meer	-11.2039
▁bezahlen	-11.2039
▁physical	-11.2042
▁öffentlicher	-11.2042
▁ständigen	-11.2042
▁airports	-11.2042
▁ch	-11.2044
▁entsteht	-11.2045
▁Heimat	-11.2051
▁Kulturen	-11.2054
Politik	-11.2056
▁übermitteln	-11.206
▁Standpunkte	-11.2062
sche	-11.2065
▁informal	-11.2069
▁Arbeitsgruppe	-11.207
▁insufficient	-11.2073
▁indicators	-11.2075
▁EMU	-11.2078
▁Erzeugung	-11.2078
▁causing	-11.2078
▁42	-11.2079
▁losses	-11.2081
▁Lithuania	-11.2081
▁Simbabwe	-11.2085
▁regeln	-11.2086
▁Mission	-11.2087
▁wünschenswert	-11.2088
▁Zwecke	-11.2089
▁Litauen	-11.2091
▁nonetheless	-11.2091
▁Sp	-11.2093
▁hence	-11.2094
▁müßte	-11.2095
▁Arbeitgeber	-11.2096
▁besagt	-11.2098
▁Güter	-11.2098
▁Haiti	-11.2101
▁presentation	-11.2109
▁indicate	-11.2113
▁8.	-11.2114
▁schrittweise	-11.2114
▁3,	-11.2115
▁reserve	-11.2116
▁elderly	-11.2118
▁gestaltet	-11.2118
▁raw	-11.2118
▁turning	-11.2119
▁welcomes	-11.2119
▁incorporate	-11.212
▁Car	-11.212
▁Schulen	-11.212
▁Palestinians	-11.2121
▁AIDS	-11.2121
▁ecological	-11.2121
▁covers	-11.2123
länder	-11.2123
▁Missbrauch	-11.2124
▁langfristigen	-11.2125
▁fand	-11.2128
port	-11.2129
▁receiving	-11.2131
▁bedeutenden	-11.2133
▁Ad	-11.2136
▁uncertainty	-11.2138
handel	-11.2138
▁transit	-11.2138
▁eingereichten	-11.2139
▁Beschränkungen	-11.2142
▁scheinen	-11.2145
▁offering	-11.2147
▁warning	-11.2148
▁team	-11.2152
▁suggestion	-11.2152
▁kurze	-11.2153
▁genetisch	-11.2155
▁enhanced	-11.2157
▁Investment	-11.2158
▁Großteil	-11.2158
▁Ausrichtung	-11.2159
▁eingeschränkt	-11.216
▁promises	-11.2161
▁Produktions	-11.2163
J	-11.2171
▁Mensch	-11.2172
▁minister	-11.2174
▁ship	-11.2177
▁Guinea	-11.2178
▁Geneva	-11.2178
ward	-11.2179
▁2015	-11.2186
▁Ostsee	-11.2191
les	-11.2191
▁reduziert	-11.2191
steht	-11.2197
▁procurement	-11.2198
▁Zuge	-11.2201
▁bevorstehenden	-11.2203
▁regulated	-11.2203
▁unterliegen	-11.2206
▁transeuropäisch	-11.2207
macht	-11.2208
▁cr	-11.221
▁enttäuscht	-11.2211
▁gestattet	-11.2213
▁reflection	-11.2216
▁engaged	-11.2217
▁Tr	-11.2217
▁collection	-11.2218
▁unilateral	-11.2221
governmental	-11.2225
▁ergänzen	-11.2227
▁Binnenmarkts	-11.2231
▁Obviously	-11.2231
▁congratulations	-11.2231
▁Armee	-11.2232
▁basically	-11.2233
▁ersetzt	-11.2234
▁unanimous	-11.2235
▁periods	-11.2238
▁sovereign	-11.2238
▁Baroness	-11.2238
▁permit	-11.2239
▁tritt	-11.2249
▁wählen	-11.2252
▁italienische	-11.2252
▁beiträgt	-11.2254
▁observed	-11.2256
▁undertaking	-11.2267
▁ursprünglich	-11.227
▁Me	-11.2271
▁REACH	-11.2272
▁Vizepräsident	-11.2275
▁gelangt	-11.2276
▁territories	-11.2279
▁verringert	-11.2279
▁ernste	-11.228
▁began	-11.2281
▁regardless	-11.2282
▁gebe	-11.2283
▁Po	-11.2287
▁financed	-11.2288
wert	-11.2288
▁terrorists	-11.2289
▁beteiligten	-11.2289
▁generations	-11.229
▁Statistiken	-11.2291
▁Eltern	-11.2292
▁Werten	-11.2292
▁Übertragung	-11.2292
▁listened	-11.2293
▁Einfuhr	-11.2293
▁Con	-11.2295
▁students	-11.2298
ck	-11.2299
▁Ta	-11.23
▁gefährlich	-11.2301
▁genehmigt	-11.2306
▁journalists	-11.2308
▁object	-11.2311
▁ECHO	-11.2312
▁comparison	-11.2312
▁demographic	-11.2316
▁rechtfertigen	-11.2319
gruppen	-11.2322
▁micro	-11.2326
▁Angebot	-11.2331
▁folglich	-11.2333
▁push	-11.2335
▁gewonnen	-11.234
▁failing	-11.234
qui	-11.234
▁beweisen	-11.2341
▁Defizit	-11.2342
▁motions	-11.2346
▁killed	-11.2349
▁Flughäfen	-11.2353
▁behalten	-11.2355
▁effizienter	-11.2358
akt	-11.2358
▁schnelle	-11.2359
▁extraordinary	-11.236
▁qualifications	-11.2362
▁torture	-11.2362
cr	-11.2369
▁akzeptabel	-11.2374
▁vermieden	-11.2374
▁strike	-11.2376
▁Zimbabwe	-11.2377
arten	-11.2377
▁Millennium	-11.2378
▁freut	-11.2381
▁section	-11.2383
▁severe	-11.2384
▁demonstrates	-11.2384
fen	-11.2386
gl	-11.2386
zi	-11.239
▁Office	-11.2392
▁prevented	-11.2392
▁19.	-11.2394
▁abzielt	-11.2394
▁Stück	-11.2394
▁Tragödie	-11.2399
▁öffnen	-11.2401
ect	-11.2403
(1)	-11.2404
▁leichter	-11.2407
hy	-11.2407
▁elektronischen	-11.2408
▁tribute	-11.2408
▁Vorbehalte	-11.2409
▁Übereinkommens	-11.2409
▁concentration	-11.2412
▁Sind	-11.2415
▁Tages	-11.2416
▁erweisen	-11.2419
▁korrekt	-11.2419
▁umso	-11.242
vorschlag	-11.2421
▁finances	-11.2425
▁Suche	-11.2425
▁erneuerbare	-11.2426
▁abgesehen	-11.2428
▁supplies	-11.2428
▁zielt	-11.2429
▁verankert	-11.243
▁Rechenschaft	-11.2435
▁verteilt	-11.2436
▁Küsten	-11.2436
▁Entschädigung	-11.2436
▁blame	-11.2437
▁Finanzen	-11.2439
▁drivers	-11.2439
ob	-11.244
▁friedliche	-11.2441
Länder	-11.2448
▁noise	-11.2449
▁gewisser	-11.245
▁betrieben	-11.2453
▁Islam	-11.2453
▁bezahlt	-11.2453
▁necessity	-11.2456
▁unterscheiden	-11.2456
▁Kernenergie	-11.2456
▁deaths	-11.2463
▁Zugangs	-11.2465
systems	-11.2465
▁genauer	-11.2467
▁bewiesen	-11.2467
▁promoted	-11.2468
▁Kanada	-11.247
▁widmen	-11.247
weitaus	-11.2476
▁Anhang	-11.2477
St	-11.2477
▁Bauern	-11.2478
▁zukommen	-11.248
las	-11.2482
▁associations	-11.2483
▁arising	-11.2484
▁solid	-11.2489
▁Wieder	-11.2492
▁Freunde	-11.2493
ction	-11.25
▁shares	-11.2516
elt	-11.2517
▁Verträgen	-11.2518
spolitiken	-11.2519
tin	-11.2519
▁erzielten	-11.2528
▁Most	-11.2528
▁Redezeit	-11.2531
▁Nonetheless	-11.2532
▁nobody	-11.2532
▁zählt	-11.2534
▁armen	-11.2537
▁Zentrum	-11.2539
▁Verletzungen	-11.2541
▁fairen	-11.2541
▁Rechtsetzung	-11.2542
▁promise	-11.2544
▁Termin	-11.2546
▁ausgewogenen	-11.2547
▁Dafürhalten	-11.2553
▁zentralen	-11.2555
▁commend	-11.2559
▁mo	-11.2562
▁Aufforderung	-11.2563
▁sphere	-11.2563
▁unterbrochen	-11.2564
▁Vorwand	-11.2567
▁dumping	-11.2571
▁Verantwort	-11.2572
▁Statute	-11.2573
▁Wille	-11.2575
spflicht	-11.2575
▁abstained	-11.2576
▁sending	-11.258
▁pilot	-11.2581
▁Mi	-11.2582
▁konstruktiven	-11.2582
▁externen	-11.2583
▁Second	-11.2584
▁populations	-11.2584
level	-11.2591
▁looked	-11.2592
▁IGC	-11.2594
setzung	-11.2598
▁vorgebracht	-11.26
▁38	-11.26
▁socio	-11.2602
▁Arbeitszeit	-11.2602
▁13.	-11.2602
▁postal	-11.2605
▁ermutigen	-11.2606
▁Berufs	-11.2611
ions	-11.2612
ual	-11.2613
▁Declaration	-11.2615
▁beschleunigen	-11.2615
demokratischen	-11.2616
▁hierfür	-11.2618
▁sincerely	-11.2618
▁hoher	-11.2619
▁compete	-11.262
Rechtsvorschrift	-11.2622
▁frequently	-11.2624
▁auseinander	-11.2624
vis	-11.2625
▁compatible	-11.2625
▁Finnish	-11.2629
▁Sitz	-11.2633
▁bedenken	-11.2637
▁facto	-11.2642
▁viable	-11.2644
Gipfel	-11.2644
▁vorschlägt	-11.2645
▁Kurs	-11.2647
▁12.	-11.2647
▁Any	-11.2648
▁Automobil	-11.2648
Ländern	-11.2648
▁Steigerung	-11.265
▁43	-11.2651
▁pursued	-11.2652
▁rejection	-11.2653
▁Beitritts	-11.2654
▁ausge	-11.2659
▁contacts	-11.2661
▁begründet	-11.2662
▁strenge	-11.2664
▁Versprechen	-11.2665
25	-11.2666
▁gewählten	-11.2667
15	-11.2669
▁beneficial	-11.2672
line	-11.2673
▁Inseln	-11.2674
▁accompanied	-11.2679
▁gegangen	-11.2683
▁mittels	-11.2684
▁offenkundig	-11.2686
▁Auslegung	-11.2687
▁organisierten	-11.2687
▁Alternativen	-11.2689
▁revenue	-11.269
▁Americans	-11.269
▁talked	-11.2695
sicht	-11.2696
▁angehen	-11.2696
▁shortly	-11.2699
▁Ernennung	-11.27
▁Unterdrückung	-11.27
▁Tradition	-11.2702
srechts	-11.2703
▁Palästina	-11.2707
▁Fakten	-11.2709
▁benutzt	-11.2714
▁verschiedener	-11.2715
▁Vietnam	-11.2716
▁Soviet	-11.2718
▁Städte	-11.2719
▁langem	-11.2719
▁ad	-11.272
▁Vi	-11.2721
▁northern	-11.2721
▁9.	-11.2729
wieweit	-11.273
▁zurzeit	-11.2733
▁Wa	-11.2735
▁Fähigkeiten	-11.2738
▁begangen	-11.2739
Ja	-11.2743
▁keen	-11.2743
Artikel	-11.2746
▁mögen	-11.2748
▁Nichtregierungs	-11.2749
▁erheben	-11.2751
▁Massen	-11.2754
▁beglückwünsche	-11.2755
▁GVO	-11.2756
▁textile	-11.2762
▁Führer	-11.2762
mb	-11.2762
▁Glück	-11.2763
▁search	-11.2763
▁Statut	-11.2765
▁nahezu	-11.2766
▁erfolgreichen	-11.2766
▁ausgeführt	-11.2767
management	-11.2775
▁occur	-11.2775
▁Every	-11.2777
ru	-11.278
▁gefährliche	-11.2783
▁Betroffenen	-11.2785
▁moved	-11.2785
▁Kräften	-11.2791
▁Decision	-11.2792
▁Iraqi	-11.2792
▁Sozialpolitik	-11.2795
▁Aussagen	-11.2796
▁blood	-11.2797
▁Mugabe	-11.2799
▁neutral	-11.2802
for	-11.2806
▁enger	-11.2809
▁efficiently	-11.281
▁Konzentration	-11.2813
▁einzuhalten	-11.2814
▁sichere	-11.2826
▁congratulating	-11.2827
har	-11.2829
▁Beihilfe	-11.2829
▁Rome	-11.2833
▁Präsenz	-11.2835
▁coherence	-11.2835
▁klären	-11.2835
▁refuse	-11.2835
▁observe	-11.2837
▁breiten	-11.2838
▁einzugehen	-11.2839
▁Darin	-11.2839
▁observation	-11.284
▁immense	-11.284
▁Cotonou	-11.2842
▁aufzubauen	-11.2842
▁Gesetzes	-11.2843
▁beenden	-11.2847
▁Alter	-11.2847
▁division	-11.2847
▁Canc	-11.285
▁divided	-11.2852
▁anschließend	-11.2853
▁Single	-11.2856
▁evident	-11.2856
▁dasselbe	-11.2856
▁conventions	-11.2857
▁enlarged	-11.2857
▁beantragt	-11.2863
▁Ausübung	-11.2863
▁statute	-11.2871
▁transnational	-11.2871
udgetary	-11.2872
▁Subventionen	-11.2874
▁verfügbaren	-11.2875
ite	-11.2877
ov	-11.2879
▁rufen	-11.2881
ssystems	-11.2881
06	-11.2883
teil	-11.289
▁alternatives	-11.2891
▁verhandeln	-11.2892
▁davor	-11.2892
▁react	-11.2893
▁Organen	-11.2895
▁Grad	-11.2899
skosten	-11.2904
▁Marktwirtschaft	-11.2904
▁harmonised	-11.291
▁fühlen	-11.2911
▁sit	-11.2911
▁portugiesischen	-11.2912
▁geeignet	-11.2912
▁Tschetschenien	-11.2913
▁exclusively	-11.2916
▁interessant	-11.2919
▁alter	-11.2927
▁Jedoch	-11.2928
▁president	-11.2931
▁Pflichten	-11.2936
▁judgment	-11.2941
▁Bilanz	-11.2942
▁einge	-11.2946
▁Straße	-11.2947
▁alongside	-11.2948
▁design	-11.2951
ral	-11.2951
▁wiederhole	-11.2953
▁approximately	-11.2955
▁hohem	-11.2955
▁Chechnya	-11.2957
haltung	-11.2959
▁Erfolge	-11.2959
▁strictly	-11.2963
▁liefern	-11.2964
▁Ber	-11.2966
▁clearer	-11.2969
▁emerging	-11.2971
▁gefasst	-11.2972
▁angehören	-11.2974
▁weltweite	-11.2975
▁usual	-11.2975
regelung	-11.2978
▁Great	-11.2978
▁Acht	-11.2979
▁accessible	-11.298
▁hierzu	-11.298
▁beitreten	-11.2981
▁roads	-11.2982
▁fourth	-11.2986
▁Atlantic	-11.2987
▁stations	-11.2989
▁Atom	-11.2992
▁fehlende	-11.2992
▁ausführlich	-11.2993
▁troops	-11.2993
▁parents	-11.2994
▁route	-11.3
▁Opfern	-11.3
▁Außengrenzen	-11.3001
▁disappointed	-11.3001
▁bekräftigen	-11.3003
▁eigentliche	-11.3004
▁Lohn	-11.3007
▁Appell	-11.3008
▁forests	-11.3008
▁Their	-11.3009
son	-11.3011
cur	-11.3011
▁enormen	-11.3014
▁Revolution	-11.3015
du	-11.3015
verkehrs	-11.3017
▁apparent	-11.3019
▁erklärte	-11.302
▁Versicherungs	-11.3022
▁voran	-11.3024
▁bewirken	-11.3029
sammenzuarbeiten	-11.3029
▁Canada	-11.3036
▁Mitwirkung	-11.3037
▁Berg	-11.3041
▁beruhen	-11.3043
▁Mitgliedsländer	-11.3045
▁Geschäft	-11.3048
▁55	-11.305
▁bezeichnen	-11.305
▁Beruf	-11.3052
▁Jean	-11.3052
country	-11.3058
▁Einwände	-11.3059
▁simplify	-11.3059
▁Objective	-11.3066
▁closure	-11.3066
sprozeß	-11.3066
▁Michel	-11.3069
▁Emissions	-11.307
▁occupation	-11.3071
att	-11.3071
ges	-11.3071
▁unions	-11.3072
▁begun	-11.3081
▁vehicle	-11.3083
▁consulted	-11.3084
▁Hafen	-11.3091
▁Richter	-11.3091
▁Palästinenser	-11.3095
katastrophen	-11.3096
smitglieder	-11.31
ski	-11.31
2/	-11.3101
An	-11.3101
▁Otherwise	-11.3102
▁Beratung	-11.3103
▁Rest	-11.3105
▁Evaluierung	-11.3106
▁sharing	-11.311
▁Beschwerden	-11.3112
▁defending	-11.3116
▁surveillance	-11.3117
▁unanimity	-11.3117
▁Zusammensetzung	-11.3117
▁eventuell	-11.3124
▁ruling	-11.3125
▁Like	-11.3125
▁65	-11.3127
▁chemical	-11.313
▁2000,	-11.3131
▁angeboten	-11.3132
ale	-11.3135
▁progressive	-11.3136
▁wirksamen	-11.3137
▁Umstände	-11.3139
▁crops	-11.3141
ischer	-11.3142
▁Anwesenheit	-11.3143
▁desirable	-11.3147
Mediterranean	-11.3147
▁übermittelt	-11.3147
▁choices	-11.3147
▁lokale	-11.3148
geben	-11.3151
▁lag	-11.3151
▁conservation	-11.3154
▁1991	-11.3158
▁friendly	-11.316
▁beschrieben	-11.3161
▁resource	-11.3162
▁notice	-11.3163
▁Luftverkehrs	-11.3164
▁Friedensprozess	-11.3168
▁surrounding	-11.3169
▁Somit	-11.3172
▁Egypt	-11.3175
▁einzig	-11.318
▁neun	-11.318
▁erweitert	-11.3181
▁stützen	-11.3184
▁Übernahme	-11.3186
▁Einnahmen	-11.319
▁gelassen	-11.3193
▁threatened	-11.3194
▁tief	-11.3194
▁Unsicherheit	-11.3199
▁directed	-11.32
▁höher	-11.32
za	-11.3205
▁drängen	-11.3207
▁Konvents	-11.3208
▁argue	-11.3209
▁effektiver	-11.3209
▁afrikanischen	-11.3209
▁friend	-11.3211
uß	-11.3211
werk	-11.3217
▁Streit	-11.322
unt	-11.322
▁jurisdiction	-11.3221
▁intensiv	-11.3221
ju	-11.3222
2004	-11.3224
ina	-11.3226
▁volume	-11.3227
▁respecting	-11.3227
▁mere	-11.3227
▁dream	-11.3228
▁schwieriger	-11.3233
▁bewahren	-11.3236
▁replaced	-11.3242
ari	-11.3244
▁geplant	-11.3245
▁ehemalige	-11.3247
▁Danke	-11.325
▁Ergänzung	-11.325
▁connected	-11.325
▁Two	-11.3251
▁timely	-11.3251
▁traditionellen	-11.3253
▁knapp	-11.3254
▁traditions	-11.3256
▁host	-11.3258
▁justification	-11.3261
▁Immunität	-11.3265
▁win	-11.3265
▁heißen	-11.3266
▁interne	-11.3269
▁marked	-11.3273
pr	-11.3273
▁Alkohol	-11.3279
▁Studenten	-11.3283
▁hohes	-11.3286
▁Leid	-11.3286
▁pursuan	-11.3288
▁tangible	-11.3288
▁Wissens	-11.329
▁Mercosur	-11.3292
▁examination	-11.3294
▁confusion	-11.3295
▁UEN	-11.3296
▁beginnt	-11.3296
▁Anlagen	-11.33
▁permitted	-11.3303
▁gehandelt	-11.3303
▁acceptance	-11.3305
▁Fehlen	-11.3309
▁qualitativ	-11.3312
▁Zerstörung	-11.3318
▁schwedische	-11.3318
wa	-11.3319
▁fürchte	-11.3319
▁lesen	-11.3321
last	-11.3323
▁hinzu	-11.3328
▁USD	-11.3328
day	-11.3329
treffen	-11.333
ierten	-11.333
verbot	-11.3331
▁procedural	-11.3333
▁items	-11.3335
zug	-11.3337
▁Meinungen	-11.3337
vers	-11.3338
▁intelligent	-11.334
▁experiencing	-11.334
▁verwirklichen	-11.334
▁Su	-11.3342
debate	-11.3346
▁Süden	-11.3346
outh	-11.3347
▁Flüchtlings	-11.3348
▁abend	-11.3348
dienst	-11.3354
▁klarer	-11.3354
▁Verstärkung	-11.3355
▁defining	-11.3355
▁yourself	-11.3355
ET	-11.3355
▁Liebe	-11.3355
leg	-11.3359
▁Poettering	-11.3363
Rechtssicherheit	-11.3365
▁Norden	-11.3367
▁Belastung	-11.3367
▁Einzelheiten	-11.337
▁Folglich	-11.337
▁controversial	-11.337
ndez	-11.3373
▁Gesprächen	-11.3373
▁loans	-11.3374
krieg	-11.3377
▁richtet	-11.3382
▁refused	-11.3383
cu	-11.3384
▁gehabt	-11.3385
▁genießen	-11.3385
▁geklärt	-11.3385
▁festen	-11.3386
▁Hoch	-11.3386
▁north	-11.3388
▁enge	-11.3388
▁perspectives	-11.3388
▁eigenes	-11.3392
▁Posselt	-11.3393
▁Ägypten	-11.3393
ssen	-11.3399
▁gering	-11.34
▁III	-11.3401
grenzen	-11.3403
ble	-11.3404
▁image	-11.3405
▁tradition	-11.3405
▁Geschäfts	-11.3406
▁respective	-11.3406
wahl	-11.3406
▁standing	-11.3406
▁lacking	-11.3407
▁rising	-11.3408
▁nine	-11.3409
▁drive	-11.3409
▁Vorstellungen	-11.3412
▁Bürgerrechte	-11.3419
hält	-11.342
staat	-11.3424
▁Allow	-11.3425
▁Communist	-11.3427
▁geringe	-11.3428
sgruppen	-11.3431
▁Bewusstsein	-11.3431
▁integrierten	-11.3432
▁Cohesion	-11.3438
▁begegnen	-11.3438
▁Unserer	-11.344
▁rasche	-11.344
ably	-11.344
▁campaigns	-11.3442
tätigkeit	-11.3444
▁MEDA	-11.3446
▁automatisch	-11.3447
▁Absichten	-11.3452
bewegung	-11.3453
▁erleichtert	-11.3454
▁genetically	-11.3454
▁irgendeine	-11.3454
▁Ob	-11.3461
▁zutiefst	-11.3461
▁Einfluß	-11.3461
▁Nachdem	-11.3462
▁israelischen	-11.3463
▁modernen	-11.3465
ros	-11.3467
wechsel	-11.3467
▁Sitzungsperiode	-11.3469
▁kümmern	-11.3469
▁Defence	-11.3469
▁Wahlkreis	-11.3469
▁gratuliere	-11.3469
reform	-11.3473
▁net	-11.3474
▁categories	-11.3476
▁excuse	-11.3476
ete	-11.3478
▁victim	-11.3479
▁sight	-11.348
▁10.	-11.3483
aufrechterhalten	-11.3484
▁Birma	-11.3484
▁Lasten	-11.3486
▁resumed	-11.3486
quality	-11.3486
▁Palestine	-11.3492
▁hinzuweisen	-11.3492
▁Saal	-11.3492
▁threshold	-11.3495
▁expansion	-11.3499
▁gesichert	-11.3499
▁freight	-11.3507
▁vorangegangenen	-11.3511
▁Fahrzeuge	-11.3512
▁reported	-11.3512
istischen	-11.3513
▁chinesischen	-11.3516
▁Pi	-11.3517
40	-11.352
▁momentan	-11.3522
▁Tschechische	-11.3522
ron	-11.3527
▁impetus	-11.353
▁popular	-11.353
▁consequently	-11.353
▁hoped	-11.3533
Sozialdemokraten	-11.3533
▁Education	-11.3537
▁equivalent	-11.3537
▁Gewinn	-11.3538
▁farms	-11.3539
▁Kontakte	-11.354
▁Herkunft	-11.3544
▁showed	-11.3544
▁puts	-11.3546
technologie	-11.3549
▁auszuüben	-11.3553
▁Estonia	-11.3553
▁Einzel	-11.3558
▁Größe	-11.3561
▁Kategorie	-11.3561
parlamentarische	-11.3564
▁Steuerung	-11.3565
▁SIS	-11.3568
▁sad	-11.3569
▁Haushaltsmittel	-11.3574
▁Folter	-11.3575
verschmutzung	-11.3576
▁lokaler	-11.3577
▁Sitzungen	-11.3577
▁halt	-11.358
▁logical	-11.3581
of	-11.3583
▁Jahrhunderts	-11.3585
▁Unfall	-11.3585
▁Sri	-11.3586
▁banking	-11.3586
▁signing	-11.3587
bericht	-11.3589
07	-11.359
▁imposing	-11.3591
▁train	-11.3591
▁technologische	-11.3592
▁breach	-11.3593
▁railways	-11.3594
▁ersuchen	-11.3596
▁ELDR	-11.3599
▁forgotten	-11.3599
▁kritisch	-11.3599
▁organizations	-11.36
▁joined	-11.3602
▁Brief	-11.3602
▁Brasilien	-11.3603
▁house	-11.3606
▁contributing	-11.3607
lez	-11.361
war	-11.3611
▁organisiert	-11.3621
wie	-11.3621
▁Scheitern	-11.3622
▁1989	-11.3623
▁amtierenden	-11.3632
▁migrants	-11.3639
▁ökologische	-11.364
▁raises	-11.3642
▁worthy	-11.3642
io	-11.3646
▁interim	-11.3647
▁stammen	-11.3649
▁slightly	-11.3654
▁preventive	-11.3657
▁length	-11.3659
▁housing	-11.3661
▁residence	-11.3661
▁Beobachter	-11.3662
barkeit	-11.367
▁characteristics	-11.3675
▁observers	-11.3675
▁keinesfalls	-11.3676
▁verstoßen	-11.3676
rei	-11.3682
nahme	-11.3684
▁ansehen	-11.3684
▁neighbourhood	-11.3684
▁underlying	-11.3684
▁problematisch	-11.3686
▁helpful	-11.3687
▁Glauben	-11.3688
Abstimmung	-11.3689
▁block	-11.3691
▁estimated	-11.3694
▁wirksamer	-11.3694
Aussprache	-11.3697
▁negativ	-11.3697
anlagen	-11.3698
▁missing	-11.3698
wo	-11.3698
▁Regarding	-11.37
▁führte	-11.3707
▁Gewerkschaften	-11.3711
produkte	-11.3714
▁Dollar	-11.3717
▁Jugendliche	-11.3717
▁Montag	-11.3719
gebiete	-11.3719
▁Lanka	-11.3723
▁Ernährungs	-11.3723
Bürger	-11.3731
▁schenken	-11.3731
▁derart	-11.3732
▁joining	-11.3734
▁einnehmen	-11.3734
▁Arbeitsweise	-11.3735
▁assessments	-11.3737
▁vorzuschlagen	-11.3739
▁arrive	-11.3741
▁funded	-11.3746
▁Sozialpartner	-11.3749
▁fl	-11.375
▁highlights	-11.3751
ship	-11.3753
▁soil	-11.3754
▁beeinflussen	-11.3754
▁vereinfachen	-11.3754
▁distributed	-11.3756
▁ma	-11.376
▁Verzögerungen	-11.3761
▁Nachmittag	-11.3762
▁Rubrik	-11.3762
▁Vordergrund	-11.3762
▁Rückgang	-11.3763
▁Bedürfnissen	-11.3763
▁Politikbereiche	-11.3765
▁ohnehin	-11.3766
▁Ho	-11.3769
eh	-11.3772
▁integrity	-11.3778
▁Friday	-11.3778
▁systematic	-11.3779
smodell	-11.378
▁Rahmenbedingung	-11.3782
▁Brazil	-11.3783
▁Beifall	-11.3785
▁bereiten	-11.3786
forschung	-11.3788
▁approaches	-11.3791
▁erkannt	-11.3792
▁whatsoever	-11.3794
▁gefährlichen	-11.3794
▁Anreiz	-11.3796
ziel	-11.3796
Z	-11.3798
▁dramatic	-11.3801
▁Wiederherstell	-11.3802
▁ethnischen	-11.3805
ranging	-11.3808
▁Dienststellen	-11.3814
bre	-11.3814
position	-11.3815
fonds	-11.3815
▁beurteilen	-11.3817
▁Satz	-11.3828
▁chapter	-11.3831
▁accordingly	-11.3832
▁Tatsächlich	-11.3833
old	-11.3835
▁Abfälle	-11.3835
▁verpflichten	-11.3836
schrei	-11.3838
▁destroyed	-11.3838
▁definieren	-11.3841
▁restrictive	-11.3842
▁Landwirten	-11.3846
▁deutlicher	-11.3847
▁confident	-11.3849
▁einzurichten	-11.3849
▁stringent	-11.3849
▁klarstellen	-11.3852
▁Stellungnahmen	-11.3853
▁Handlungen	-11.3853
ust	-11.3855
▁Ni	-11.3855
▁Bewirtschaftung	-11.3857
▁Putin	-11.3857
▁banned	-11.3857
▁legislativen	-11.3858
▁subsequently	-11.386
how	-11.3862
▁Who	-11.3865
og	-11.3866
▁umfangreiche	-11.3868
smittel	-11.3869
▁generate	-11.387
▁zumal	-11.3875
▁perfect	-11.3877
▁dahin	-11.3878
▁Minute	-11.3881
▁representing	-11.3884
▁stärkeren	-11.3887
▁Front	-11.3888
▁vorsichtig	-11.3889
▁foot	-11.3889
▁destroy	-11.3893
▁interessante	-11.3893
▁regularly	-11.3895
▁allmählich	-11.3896
▁Gebühren	-11.3899
▁Schatten	-11.3901
Verantwortlichen	-11.3901
▁preliminary	-11.3904
▁dieselbe	-11.3906
▁envisaged	-11.3907
▁Fach	-11.391
▁notably	-11.3911
▁Please	-11.3912
eln	-11.3914
▁ambitions	-11.3916
▁agrees	-11.3919
▁thousand	-11.3919
▁card	-11.392
▁scrutiny	-11.392
Meinungsäußerung	-11.392
6/	-11.3923
schutzes	-11.3924
▁subsequent	-11.3925
▁Kopf	-11.3929
▁Behinderungen	-11.3931
ok	-11.3933
▁audit	-11.3933
▁Bio	-11.3934
▁Zuwanderung	-11.3935
bare	-11.3936
▁wozu	-11.3936
▁Beitrittsländer	-11.3937
▁wofür	-11.3937
▁Beim	-11.3937
▁reisen	-11.3938
▁Tunisia	-11.3938
▁withdrawal	-11.3939
▁integrate	-11.394
skontrolle	-11.394
▁achievements	-11.3942
▁coastal	-11.3945
▁sales	-11.3948
▁Tunesien	-11.3952
▁reconciliation	-11.3952
outermost	-11.3952
▁violent	-11.3954
▁managing	-11.3954
▁solide	-11.3954
▁controlled	-11.3956
▁contrast	-11.396
▁verschaffen	-11.3961
▁durchgesetzt	-11.3964
infrastruktur	-11.3967
▁emission	-11.3967
▁koordinieren	-11.3968
▁organisieren	-11.3968
▁symbol	-11.3971
▁fort	-11.3972
▁discipline	-11.3972
gang	-11.3975
▁Visum	-11.3977
▁gewünscht	-11.398
konferenz	-11.3983
▁Wednesday	-11.3984
▁Natura	-11.3986
▁Her	-11.3987
▁imported	-11.3991
▁Rechtsrahmen	-11.3995
Industriepolitik	-11.3998
▁konkreter	-11.3999
▁judge	-11.3999
▁Blut	-11.4
▁beinhalten	-11.4
gesellschaften	-11.4
elle	-11.4002
lose	-11.4007
▁hinein	-11.401
mel	-11.401
▁Services	-11.4014
Strafgerichtshof	-11.4016
▁advanced	-11.4017
▁Bord	-11.4023
▁Verurteilung	-11.4024
▁exceptions	-11.4027
▁advocate	-11.4027
arbeiten	-11.4029
▁Inflation	-11.4032
▁Lebanon	-11.4032
king	-11.4034
▁Weil	-11.4038
▁error	-11.404
▁Mittwoch	-11.4041
▁ausgeübt	-11.4041
▁sentence	-11.4044
eck	-11.405
▁verursachen	-11.4057
▁Lebensmitteln	-11.4057
▁amerikanische	-11.406
▁dahingehend	-11.4065
▁participating	-11.4065
▁consent	-11.4065
▁Fischereisektor	-11.4066
holen	-11.4066
▁Institute	-11.4066
▁Folgendes	-11.4067
▁könne	-11.4067
ufgrund	-11.4068
▁inside	-11.407
▁ignoriert	-11.4073
▁Tatsachen	-11.4076
▁Infrastrukturen	-11.4077
▁woman	-11.4077
▁Taliban	-11.4081
▁Monday	-11.4081
▁map	-11.4087
▁hundred	-11.4089
▁Solidarity	-11.4089
▁durchsetzen	-11.4091
▁covering	-11.4094
▁conviction	-11.4097
▁Gefängnis	-11.4099
▁Gipfels	-11.4099
▁plays	-11.4101
▁anstreben	-11.4103
▁ungeachtet	-11.4105
▁ständige	-11.4108
▁grave	-11.4109
▁Florenz	-11.4113
▁Dort	-11.4115
▁höchsten	-11.4116
▁inhabitants	-11.4118
11	-11.4121
▁jeweils	-11.4121
▁Südafrika	-11.4122
▁Übersetzung	-11.4122
▁Vorfeld	-11.4122
▁niederländische	-11.4128
ziehen	-11.4132
net	-11.4135
eg	-11.4137
Veröffentlichung	-11.4138
▁universities	-11.4138
▁Pfeiler	-11.4138
▁minimal	-11.4138
▁Lom	-11.4139
▁dauerhafte	-11.4142
▁Einschränkung	-11.4145
▁losing	-11.4146
▁resistance	-11.4146
ack	-11.4147
sk	-11.4148
▁einzu	-11.415
System	-11.4156
▁Alles	-11.4157
fallen	-11.4158
len	-11.416
▁pretext	-11.4162
ierte	-11.4163
▁600	-11.4163
▁Mitte	-11.4163
▁flows	-11.4164
▁einfachen	-11.4166
▁cheap	-11.4169
▁empfehlen	-11.417
preis	-11.417
▁infringement	-11.4171
▁Stunde	-11.4173
▁anzupassen	-11.4179
▁gained	-11.4181
santrägen	-11.4185
▁Hilfen	-11.4186
▁fires	-11.4187
▁gross	-11.4187
▁berichten	-11.4187
▁founded	-11.4193
▁stem	-11.4194
▁tough	-11.4194
▁Libyen	-11.4195
▁bedaure	-11.4195
▁mandatory	-11.4195
▁catch	-11.42
▁umfassen	-11.4201
organ	-11.4201
▁ausgewogene	-11.4201
▁rid	-11.4203
▁Gewährung	-11.4204
▁fixed	-11.4205
▁solved	-11.4207
▁vorrangige	-11.4208
▁brutal	-11.4209
▁radio	-11.421
▁chemicals	-11.4211
▁executive	-11.4211
▁Teilnehmer	-11.4212
▁Verhältnisse	-11.4213
kontrolle	-11.4215
reaching	-11.4216
eth	-11.4219
▁satellite	-11.4219
▁Gegen	-11.4221
▁Ursache	-11.4222
▁murder	-11.4222
▁südlichen	-11.4223
▁Können	-11.4228
▁PHARE	-11.4228
▁Gleichwohl	-11.4228
▁bewertet	-11.4228
▁eventually	-11.4229
▁supranational	-11.423
▁sozusagen	-11.4232
ef	-11.4233
▁energisch	-11.4236
▁delegations	-11.4239
▁disputes	-11.4251
▁Criminal	-11.4252
▁überrascht	-11.4252
Emissionen	-11.4259
▁character	-11.426
▁Erika	-11.4261
▁infrastructures	-11.4272
▁17.	-11.4273
▁shift	-11.4274
▁birth	-11.4277
▁erläutert	-11.4277
▁Fernsehen	-11.4278
▁geteilt	-11.4278
oc	-11.4278
▁Jos	-11.428
▁Vorsitzende	-11.4282
▁complement	-11.4285
▁Wälder	-11.4285
tur	-11.4285
uelle	-11.4287
▁transparenter	-11.4287
nehmen	-11.4289
2005	-11.4293
▁dead	-11.4293
▁verbieten	-11.4294
▁convince	-11.4297
▁zieht	-11.4301
▁ausgestattet	-11.4302
▁mistakes	-11.4303
▁Writ	-11.4305
▁Spannungen	-11.4305
▁Fristen	-11.4305
▁Arbeitskräfte	-11.4307
▁providers	-11.4309
▁ignored	-11.4309
▁Auswahl	-11.4309
▁Ausgangspunkt	-11.431
▁Erdöl	-11.431
▁U	-11.4311
lock	-11.4311
▁rechnen	-11.4313
▁Arbeitsprogramm	-11.4315
▁safeguarding	-11.4318
vote	-11.4318
▁Tür	-11.4319
▁Gemäß	-11.4323
▁Watson	-11.4327
▁gäbe	-11.4327
▁drittens	-11.4329
▁Ausgang	-11.4329
▁End	-11.4331
▁Demokratische	-11.4331
▁black	-11.4335
▁faire	-11.4336
▁türkische	-11.4337
▁schlechter	-11.4339
▁farm	-11.4343
▁manchen	-11.4343
▁Einstimmigkeit	-11.4343
▁Logik	-11.4343
▁realistisch	-11.4347
▁Drei	-11.4349
▁Syrien	-11.4352
▁verschärft	-11.4352
▁unterstrichen	-11.4352
▁ratify	-11.4353
▁exploit	-11.4356
▁2009.	-11.4356
größter	-11.4357
iterentwicklung	-11.4363
▁Syria	-11.4363
▁exchanges	-11.4365
▁Could	-11.4368
iger	-11.437
▁Innovationen	-11.437
▁Je	-11.4371
▁Option	-11.4373
▁integral	-11.4377
▁streng	-11.4377
bringen	-11.4378
▁Lu	-11.4379
pri	-11.4381
▁Million	-11.4386
▁Sozialisten	-11.4386
▁erstellen	-11.4389
▁fifth	-11.4393
▁Annäherung	-11.4393
▁cultures	-11.4394
▁Pakt	-11.4397
▁Ba	-11.44
agentur	-11.4401
▁Freitag	-11.4402
hen	-11.4407
▁Euratom	-11.4408
▁funktionierende	-11.4409
▁verhandelt	-11.4411
▁Hence	-11.4411
rau	-11.4412
▁monitored	-11.4415
▁zwingen	-11.4416
ink	-11.4416
▁vorgestellt	-11.4417
▁attend	-11.4417
▁Wallström	-11.4418
▁Timor	-11.442
▁accountability	-11.4421
▁Derzeit	-11.4424
aw	-11.4424
▁Verbindungen	-11.4425
▁horizontal	-11.4426
▁Democratic	-11.4426
▁Libanon	-11.4427
▁schön	-11.443
way	-11.443
▁Libya	-11.443
arm	-11.4431
lang	-11.4431
ah	-11.4432
▁engagiert	-11.4435
▁Zielsetzung	-11.4438
tan	-11.444
▁Niemand	-11.4444
▁detention	-11.4444
▁einzuleiten	-11.4444
▁Unternehmer	-11.4447
▁pursuing	-11.4452
▁stellte	-11.4453
voll	-11.4456
▁2000.	-11.4457
▁foundation	-11.4459
▁Nähe	-11.446
▁tolerance	-11.446
▁consistency	-11.446
▁Annex	-11.446
▁ausgehend	-11.4462
▁Detail	-11.4463
▁relative	-11.4463
▁suggests	-11.4468
▁Corbett	-11.4469
ären	-11.4472
▁listening	-11.4473
▁44	-11.4475
▁herzustellen	-11.4478
▁überlegen	-11.4481
▁Parlamenten	-11.4481
▁Säule	-11.4481
▁bekanntlich	-11.4481
▁Einzelnen	-11.4483
▁organic	-11.4484
▁movements	-11.4485
▁erweitern	-11.4486
▁furthermore	-11.4486
jährigen	-11.449
▁Transit	-11.4491
▁Insofern	-11.4494
▁zwölf	-11.4494
erstattung	-11.4496
▁Fluggesellschaf	-11.4496
▁heran	-11.45
▁Similarly	-11.4503
▁touch	-11.4505
▁appelliere	-11.4506
▁gespielt	-11.4512
sabkommens	-11.4512
▁hour	-11.4515
▁Iranian	-11.4515
ments	-11.4515
rie	-11.452
▁abroad	-11.452
▁regimes	-11.4522
ip	-11.4523
▁Kampagne	-11.4525
▁rely	-11.4527
diskriminierung	-11.4528
▁Kohäsionsfonds	-11.4528
▁investors	-11.4529
▁Ru	-11.453
hor	-11.453
▁revolution	-11.4531
▁decent	-11.4533
▁Westen	-11.4534
▁Jarzembowski	-11.4536
▁eröffnen	-11.4536
treten	-11.4545
▁decline	-11.4549
namo	-11.4551
▁warrant	-11.4555
▁accepting	-11.4557
▁fails	-11.4557
operation	-11.4557
srahmen	-11.456
▁dänischen	-11.4561
▁Tierschutz	-11.4561
▁Nordirland	-11.4562
▁Gleichheit	-11.4562
ker	-11.4564
ahn	-11.4564
▁eigentlichen	-11.4565
▁stakeholders	-11.4565
tel	-11.4566
▁erwarte	-11.4568
▁bekämpft	-11.4569
▁20.	-11.4569
▁sell	-11.4569
▁Wald	-11.4571
▁geringer	-11.4577
▁Eines	-11.4577
▁stimulate	-11.4579
▁halb	-11.4581
▁anbieten	-11.4583
▁weisen	-11.4585
leben	-11.4585
▁denied	-11.4586
▁unannehmbar	-11.4587
▁schlechte	-11.4587
▁Kluft	-11.4587
▁Chairman	-11.4587
▁Ganzes	-11.4588
▁beachten	-11.4588
side	-11.4588
▁warm	-11.4592
▁older	-11.4592
▁fears	-11.4593
▁stages	-11.4595
▁straight	-11.4596
▁erweiterten	-11.4599
▁surprise	-11.46
▁containing	-11.4601
▁Te	-11.4604
▁resolving	-11.4604
stra	-11.4605
▁di	-11.4606
teilung	-11.4606
▁Petition	-11.461
▁außergewöhnlich	-11.4612
▁Dynamik	-11.4613
▁sincere	-11.4618
▁v	-11.4619
▁abgeschafft	-11.4621
▁Weiterbildung	-11.4621
▁behindert	-11.4625
rechts	-11.4625
▁unbe	-11.4626
lassen	-11.463
▁England	-11.463
▁acknowledged	-11.463
ped	-11.4633
▁Generalsekretär	-11.4636
2010	-11.4636
▁Sozialdemokrat	-11.4638
▁abzulehnen	-11.4638
▁sympathy	-11.4638
▁erzeugt	-11.4639
▁geehrter	-11.464
▁überwacht	-11.4642
find	-11.4642
▁EGF	-11.4644
▁albeit	-11.4647
▁immunity	-11.4647
▁führende	-11.465
▁reductions	-11.465
▁offiziellen	-11.4651
Mittelmeer	-11.4652
▁friedlichen	-11.4656
▁Guant	-11.4656
▁sitzen	-11.4656
▁vernünftigen	-11.4657
▁belgischen	-11.4658
▁oberste	-11.4658
▁mis	-11.4661
▁fertig	-11.4661
ult	-11.4662
▁anniversary	-11.4664
▁Überleben	-11.4667
▁Reden	-11.4672
▁Aufstockung	-11.4673
▁consolidation	-11.4673
▁Johannesburg	-11.4673
▁expertise	-11.4673
▁anzugehen	-11.4675
▁Territorium	-11.4675
▁Schattenbericht	-11.4676
▁liked	-11.4677
▁Kompromisse	-11.4677
▁abuses	-11.4681
▁Zusammenhalts	-11.4681
▁female	-11.4681
▁imperative	-11.4681
▁getreten	-11.4682
▁Branche	-11.4686
▁Konflikts	-11.4687
▁empfohlen	-11.469
gr	-11.4697
region	-11.4698
▁bereitzustellen	-11.4699
yes	-11.4701
▁wenigsten	-11.4701
▁refugee	-11.4701
▁visited	-11.4701
▁assets	-11.4702
▁2010.	-11.4704
schlag	-11.4704
▁criterion	-11.4707
▁backing	-11.4708
▁Beide	-11.4708
sinstrument	-11.4709
▁schlimmer	-11.4709
▁investigations	-11.4711
ists	-11.4713
▁experiences	-11.4714
use	-11.4715
ement	-11.4715
▁Schließung	-11.4716
▁registration	-11.4716
▁fortzusetzen	-11.4716
▁Global	-11.4718
interessen	-11.4718
▁exclude	-11.472
▁Lebensqualität	-11.4725
▁festhalten	-11.4725
▁Werden	-11.4729
▁finanzieller	-11.473
▁prerequisite	-11.4733
▁signs	-11.4735
▁womit	-11.4736
▁wages	-11.4736
▁sterben	-11.4737
▁invited	-11.4739
▁tend	-11.4741
▁TACIS	-11.4742
▁meantime	-11.4743
▁actors	-11.4743
▁Ausschüssen	-11.4744
▁answered	-11.4744
wi	-11.4744
ants	-11.4744
▁sports	-11.4746
▁Roth	-11.4746
▁wind	-11.4747
▁cent	-11.4748
äch	-11.4749
▁visible	-11.475
▁fairer	-11.4753
▁geblieben	-11.4754
▁Reding	-11.4755
▁Konjunktur	-11.4757
▁österreichische	-11.4757
▁Koordination	-11.4759
▁durchgeführten	-11.4764
▁genaue	-11.4764
ellen	-11.4768
▁verstärkten	-11.4768
▁Pack	-11.4769
▁zurückkommen	-11.4769
▁Ungleichheiten	-11.4769
▁offices	-11.477
▁fuels	-11.4771
▁usually	-11.4772
ualitäts	-11.4775
Rule	-11.4775
▁Symbol	-11.4776
▁untergraben	-11.4776
▁müsse	-11.4781
tik	-11.4785
▁Effektivität	-11.4785
▁hilft	-11.4785
▁fünfzehn	-11.4785
▁Verzögerung	-11.4787
▁evaluate	-11.4787
▁Erstellung	-11.4788
▁Lehren	-11.4788
▁sold	-11.4788
▁Liberals	-11.4789
uellen	-11.479
▁concludes	-11.4791
tum	-11.4792
▁Liikanen	-11.4794
▁gedenkt	-11.4794
▁released	-11.4794
▁Städten	-11.4796
▁systematisch	-11.4798
▁investiert	-11.48
▁employed	-11.4801
▁Moldau	-11.4802
▁prime	-11.4802
▁dictatorship	-11.4808
bedingungen	-11.4809
▁coal	-11.481
▁existieren	-11.481
cha	-11.4812
▁Law	-11.4814
schluss	-11.4815
▁incentive	-11.4816
▁eingestellt	-11.4819
▁39	-11.4819
▁functions	-11.4819
▁Gesetzgeber	-11.482
▁Mitbürger	-11.4827
▁Entwicklungs	-11.4829
▁Textes	-11.4829
test	-11.4831
▁Israelis	-11.4833
▁kamen	-11.4837
▁Aufklärung	-11.4837
▁Bevor	-11.4839
▁chair	-11.4841
▁humanity	-11.4844
▁dangers	-11.4845
▁Konkurrenz	-11.4846
▁Oomen	-11.4846
zugeben	-11.4847
▁outlined	-11.4849
▁Angola	-11.4855
▁Ecofin	-11.4855
▁Menschheit	-11.4855
▁Flüchtlingen	-11.4856
▁cast	-11.4858
▁learned	-11.4858
▁finish	-11.4861
▁nieder	-11.4866
▁Völkern	-11.4866
▁geplanten	-11.4868
▁Luftverkehr	-11.4869
▁beunruhigt	-11.4872
▁hinnehmbar	-11.4872
▁autonomy	-11.4872
▁diesbezügliche	-11.4878
▁nachzudenken	-11.4881
▁Hunger	-11.4881
▁Straf	-11.4886
daten	-11.4888
▁variety	-11.489
▁Instrumenten	-11.489
Gesundheitswesen	-11.4893
(2)	-11.4894
▁looks	-11.4897
▁ergänzt	-11.4899
▁Truppen	-11.4899
▁tonight	-11.4899
wettbewerbsfähig	-11.4901
▁5,	-11.4904
▁Muslim	-11.4906
mann	-11.4906
▁Scotland	-11.4907
▁droht	-11.4907
▁pharmaceutical	-11.4907
▁Gewinne	-11.4908
▁fifteen	-11.4916
▁Wortlaut	-11.4916
▁gewiss	-11.4928
▁entering	-11.4929
▁except	-11.4933
▁Slowenien	-11.4934
▁kaufen	-11.4934
▁attractive	-11.4934
bt	-11.4937
▁Kapazitäten	-11.4939
▁models	-11.4939
ran	-11.4941
▁Ms	-11.4942
▁Sachen	-11.4951
▁voters	-11.4951
▁berichtet	-11.4952
▁modernisation	-11.4953
▁250	-11.4953
▁russische	-11.4955
▁Vorbereitungen	-11.4959
sstandards	-11.496
▁accounting	-11.4966
▁jährlichen	-11.4967
▁Material	-11.4969
▁Schriftliche	-11.4969
▁Privatisierung	-11.4969
▁Andere	-11.4969
▁vollständigen	-11.4971
▁Slovenia	-11.4975
▁inquiry	-11.4978
▁Schweiz	-11.4979
▁virtually	-11.4979
losen	-11.4981
▁Gefangenen	-11.499
sel	-11.499
▁Defizite	-11.4992
▁proven	-11.4993
▁feature	-11.4993
▁Other	-11.4993
▁Verschmutzung	-11.4996
▁maintenance	-11.4996
▁supervisory	-11.4996
▁Texte	-11.4998
▁wenigstens	-11.5
▁Verhaltenskodex	-11.5001
▁visas	-11.5002
zeiten	-11.5002
▁verzichten	-11.5005
▁finanziell	-11.5005
▁Textil	-11.5008
▁endeavour	-11.5008
▁gradual	-11.501
▁multilateralen	-11.5014
▁substantially	-11.5015
▁unit	-11.5016
▁Import	-11.5016
atur	-11.5017
▁diverse	-11.5019
tat	-11.5019
▁Eigentum	-11.5023
▁corresponding	-11.5026
▁cutting	-11.5028
gruppe	-11.5029
▁names	-11.5029
▁fate	-11.5031
▁beeinträchtigt	-11.5031
▁Nachteil	-11.5032
▁criminals	-11.5034
ör	-11.5034
▁ungefähr	-11.5036
ible	-11.5037
ations	-11.5038
▁Nuklear	-11.504
▁Nutzer	-11.5042
▁renewed	-11.5043
ressourcen	-11.5045
ufrechterhaltung	-11.5049
▁disastrous	-11.5049
▁conscience	-11.5049
▁beruflichen	-11.5049
anz	-11.505
▁täglich	-11.5054
lor	-11.5057
▁sexuellen	-11.5059
▁langer	-11.506
▁Migranten	-11.506
▁hopefully	-11.5061
▁Viertens	-11.5063
▁Parlamentarier	-11.5064
▁18.	-11.5064
▁Versuche	-11.5065
▁completion	-11.5067
▁location	-11.5071
▁Kohle	-11.5072
Ruijten	-11.5076
val	-11.5079
▁Aussicht	-11.508
5-04	-11.5081
▁Schul	-11.5082
▁Vorsitzender	-11.5083
▁scientists	-11.5083
▁Indikatoren	-11.5084
▁terror	-11.5086
▁recognises	-11.5086
▁begreifen	-11.5087
▁quantitative	-11.5088
▁Freund	-11.509
▁größerer	-11.509
▁compromises	-11.509
▁Osteuropa	-11.5092
▁Inanspruchnahme	-11.5094
▁Leitung	-11.5096
▁wertvolle	-11.5098
▁ceiling	-11.5101
▁ausgelöst	-11.5103
▁gestiegen	-11.5103
▁Geltungsbereich	-11.5103
bereit	-11.5104
▁notion	-11.5105
▁appointed	-11.5105
▁verbindliche	-11.5106
▁wachsenden	-11.5106
▁Professor	-11.5112
▁GMOs	-11.5115
▁Hinweise	-11.5116
▁Rom	-11.5118
▁vorzugehen	-11.5118
▁falling	-11.512
▁Bezeichnung	-11.5121
smechanismus	-11.5121
▁Eurojust	-11.5121
▁badly	-11.5122
▁civilisation	-11.5124
▁Darlehen	-11.5126
▁sicheren	-11.5127
▁anmerken	-11.513
struktur	-11.5131
▁Pre	-11.5132
▁features	-11.5132
▁Per	-11.5137
reich	-11.5137
▁Kredit	-11.5137
▁cope	-11.5139
▁derartigen	-11.5144
▁Unionsbürger	-11.5144
▁16.	-11.5145
▁Trans	-11.5145
▁indication	-11.5146
▁game	-11.5147
▁Königreichs	-11.5147
ile	-11.5148
▁Haushalte	-11.515
▁dossier	-11.5152
▁Niederlande	-11.5154
▁Kurz	-11.5155
▁examining	-11.5157
▁gedacht	-11.5157
▁Gen	-11.5158
Ge	-11.516
▁endorsed	-11.516
▁lehnen	-11.5164
vollem	-11.5165
▁Beträge	-11.5166
seits	-11.517
▁Code	-11.5172
▁acted	-11.5173
▁globaler	-11.5174
Ein	-11.5174
▁wachsende	-11.5174
finanzierung	-11.5178
spiel	-11.5181
▁ASEAN	-11.5182
▁translation	-11.5184
▁observations	-11.5186
▁Du	-11.5188
▁wenngleich	-11.5189
▁Rahmens	-11.5191
▁Ratspräsidentin	-11.5191
In	-11.5199
▁Ne	-11.5201
▁Above	-11.5202
▁geeinigt	-11.5202
▁Spielraum	-11.5202
discrimination	-11.5204
▁allgemeiner	-11.5205
ana	-11.5206
▁gewaltige	-11.521
▁verhängt	-11.5211
▁Naturally	-11.5212
▁46	-11.5212
▁früh	-11.5214
▁ungarischen	-11.5216
Generaldirektion	-11.522
▁OSZE	-11.522
▁Anschluss	-11.5221
▁foster	-11.5222
▁apparently	-11.5224
▁productive	-11.5226
▁Eröffnung	-11.5229
▁avoided	-11.5229
ät	-11.5232
▁Krebs	-11.5232
▁consistently	-11.5238
▁sämtlichen	-11.524
▁einsetzt	-11.5242
Schlussfolgerung	-11.5242
▁fahren	-11.5242
national	-11.5243
▁borne	-11.5245
▁Beibehaltung	-11.5247
▁adequately	-11.5249
▁safeguards	-11.5252
▁explanations	-11.5253
shaushalt	-11.5254
▁Amerikaner	-11.5254
▁false	-11.5256
▁geachtet	-11.5256
▁productivity	-11.5256
▁versteht	-11.5258
▁book	-11.5259
▁verfügbar	-11.5259
güter	-11.526
▁Jahrzehnten	-11.5264
▁essence	-11.5266
▁sicherer	-11.5267
▁paragraphs	-11.5269
▁Summe	-11.5272
▁OSCE	-11.5274
▁programming	-11.5275
▁rechtlich	-11.5281
▁clauses	-11.5283
▁teilgenommen	-11.5284
▁Kriterium	-11.5293
▁silence	-11.5293
▁verwirklicht	-11.5293
▁remark	-11.5293
sur	-11.5294
▁sichtbar	-11.5296
▁derselben	-11.5297
ng	-11.53
▁Bedauern	-11.5302
▁offiziell	-11.5303
▁Verkauf	-11.5303
regionen	-11.5305
ans	-11.531
gegangen	-11.531
▁initially	-11.5311
▁zunehmenden	-11.5313
gebiet	-11.5315
▁Haftung	-11.5316
ruf	-11.5317
▁bar	-11.5318
▁Solche	-11.5319
▁vereinbar	-11.5319
▁Beförderung	-11.532
▁Bestände	-11.5321
▁ersucht	-11.5323
▁klares	-11.5328
haft	-11.5329
würdig	-11.5329
▁Vitorino	-11.5329
▁aktiven	-11.5329
▁Versorgungs	-11.5333
▁Konflikten	-11.5337
▁minor	-11.5338
stelle	-11.5339
▁umgehend	-11.534
▁Lernen	-11.5344
▁bill	-11.5346
▁ageing	-11.5346
brechen	-11.5347
▁everywhere	-11.5348
▁Einer	-11.5349
▁85	-11.5352
▁0,	-11.5354
▁beseitigt	-11.5357
geht	-11.5358
▁class	-11.5361
▁einbringen	-11.5361
▁moralische	-11.5364
▁focusing	-11.5364
▁privacy	-11.5366
▁auferlegt	-11.5366
▁consultations	-11.5367
▁partnerships	-11.5372
▁glücklich	-11.5373
▁divide	-11.5373
▁gestrichen	-11.5375
▁irgendwelche	-11.5375
▁dargestellt	-11.5376
▁geistigen	-11.5377
▁devoted	-11.5379
▁adaptation	-11.538
▁sex	-11.5383
▁plötzlich	-11.5384
Ko	-11.5385
ification	-11.5386
▁consolidate	-11.5389
▁sites	-11.5389
▁title	-11.5394
▁precautionary	-11.5394
▁wahrnehmen	-11.5394
▁Romanian	-11.5396
▁Mutter	-11.5397
▁Mitgliedstaates	-11.54
▁Internationale	-11.54
punkte	-11.5404
▁Klaren	-11.5407
▁collapse	-11.5407
▁CE	-11.541
▁Linken	-11.5415
▁Gib	-11.5415
▁heads	-11.5416
▁bilaterale	-11.5418
▁wirken	-11.5426
berichterstatter	-11.543
▁Legitimität	-11.5431
▁Special	-11.5431
▁technischer	-11.5436
▁Traditionen	-11.5437
sniveau	-11.5437
institutionelle	-11.5439
gebieten	-11.5444
▁Beweise	-11.5444
▁kritischen	-11.5444
▁gerechte	-11.5447
▁gewahrt	-11.5449
lösung	-11.545
▁gefallen	-11.5451
▁Alt	-11.5451
▁Kind	-11.5451
▁religiösen	-11.5454
▁halbe	-11.5455
▁gebraucht	-11.5459
▁assurance	-11.546
/2000	-11.5462
▁seekers	-11.5462
▁aufgegriffen	-11.5465
▁Drittländer	-11.5466
▁Delegationen	-11.5468
▁territorialen	-11.5471
pol	-11.5474
ausschuß	-11.5475
such	-11.5476
▁ha	-11.5476
▁ausgewogen	-11.5477
▁denselben	-11.5477
▁versprochen	-11.5477
sektors	-11.5479
▁starkes	-11.548
▁emerged	-11.5481
▁statistical	-11.5481
▁Fern	-11.5484
▁arrived	-11.5484
▁49	-11.5484
▁Denken	-11.5485
▁hunger	-11.5486
pon	-11.5488
Sch	-11.5488
▁democratically	-11.5489
verwaltung	-11.5493
▁minds	-11.5494
▁befaßt	-11.5496
▁ändert	-11.5496
▁sums	-11.5496
▁stick	-11.5498
▁cycle	-11.5499
▁aussehen	-11.5499
▁zukünftig	-11.55
sbestimmungen	-11.5501
▁Federal	-11.5505
▁explicitly	-11.5508
dy	-11.5509
▁kompliziert	-11.5509
▁exclusive	-11.5511
▁rigorous	-11.5511
▁verhalten	-11.5514
▁Switzerland	-11.5514
▁verteidigt	-11.5514
▁irregularities	-11.5514
▁Stellenwert	-11.5515
alter	-11.5515
▁Auswärtige	-11.5517
▁Fernseh	-11.5518
friendly	-11.552
▁aggressive	-11.5524
▁repressive	-11.5524
▁Ferrero	-11.5524
▁sogenannte	-11.5525
▁Motor	-11.5526
law	-11.5532
▁Angriffe	-11.5533
▁selber	-11.5533
▁unterstreicht	-11.5533
▁Would	-11.5533
▁personnel	-11.5539
▁leaves	-11.5539
regelmäßigkeiten	-11.5541
fach	-11.5542
▁damaging	-11.5542
▁investigate	-11.5547
▁shipping	-11.5552
▁2010,	-11.5552
rang	-11.5554
▁Olympic	-11.5561
▁sorgt	-11.5561
▁repression	-11.5561
gesetzgebung	-11.5562
▁2006,	-11.5562
▁endgültig	-11.5563
▁definitive	-11.5566
▁Herbst	-11.5571
▁roll	-11.5578
▁struck	-11.558
▁reserves	-11.558
▁wall	-11.5581
▁Amtszeit	-11.5581
richt	-11.5581
▁Technik	-11.5584
lin	-11.5587
▁aufgebaut	-11.5589
▁generous	-11.5589
▁Vertrauens	-11.559
▁accused	-11.5592
▁MEP	-11.5592
sphase	-11.5595
rg	-11.5597
▁Einschränkungen	-11.56
▁Kongo	-11.5601
▁beträgt	-11.5602
▁ehrgeizige	-11.5604
▁vorn	-11.5604
▁tackled	-11.5605
▁recommended	-11.5606
▁deficits	-11.5609
ang	-11.561
▁vorgesehene	-11.561
▁normalen	-11.5612
▁Tendenz	-11.5613
▁effektiven	-11.5614
▁Firmen	-11.5618
▁Verhinderung	-11.5618
▁ignorieren	-11.5618
▁120	-11.5619
präsidenten	-11.5619
▁angemessener	-11.562
▁seat	-11.5621
▁integrierte	-11.5622
▁reporting	-11.5625
▁Konsolidierung	-11.5627
▁angewiesen	-11.5627
▁glaubt	-11.5627
▁gesunde	-11.5629
▁cease	-11.5632
▁griechische	-11.5635
▁wave	-11.5637
führung	-11.5637
▁punishment	-11.5638
▁His	-11.5642
▁Christen	-11.5646
▁autumn	-11.5646
▁voranzubringen	-11.5646
druck	-11.565
ünd	-11.5652
gesetz	-11.5652
▁Sicherheitsrat	-11.5654
▁Erleichterung	-11.5656
▁Globalisation	-11.5656
Rat	-11.5657
▁kritisieren	-11.5658
DC	-11.5663
▁testing	-11.5663
▁Reserve	-11.5664
▁fought	-11.5665
▁storage	-11.5665
▁zwangsläufig	-11.5665
▁fault	-11.5665
▁Lamy	-11.5665
▁flights	-11.5665
▁pipeline	-11.5671
▁kritische	-11.5671
sarbeit	-11.5673
▁Whilst	-11.5674
▁simplified	-11.5684
▁fehlen	-11.5684
▁seinerzeit	-11.5689
▁story	-11.5694
▁Haftbefehl	-11.5694
▁Schengener	-11.5694
▁purchase	-11.5698
▁47	-11.5701
▁qualitative	-11.5701
▁Freilassung	-11.5703
▁herum	-11.5706
fang	-11.5709
▁Venezuela	-11.5713
▁Weiterhin	-11.5713
▁Umstellung	-11.5716
▁vorgetragen	-11.5717
▁gewidmet	-11.5722
▁football	-11.5722
▁Darauf	-11.5722
▁continuation	-11.5723
▁distance	-11.5724
▁Erbe	-11.5726
▁miss	-11.5726
▁bio	-11.5727
ators	-11.5728
▁Str	-11.5728
▁immerhin	-11.5729
▁attach	-11.573
▁br	-11.5731
▁embargo	-11.5731
▁fulfilled	-11.5732
Waldner	-11.5732
▁Ch	-11.5734
▁mental	-11.5735
▁Mon	-11.5735
▁exemption	-11.5735
äre	-11.5739
▁platform	-11.5741
▁hazardous	-11.5741
▁Bi	-11.5742
bil	-11.5743
▁aufgestellt	-11.5746
ries	-11.575
▁Vermeidung	-11.5751
▁angehört	-11.5751
weisen	-11.5751
fern	-11.5752
spräsidenten	-11.5758
▁desired	-11.5759
▁ensured	-11.576
▁soldiers	-11.576
mat	-11.5761
▁Süd	-11.5761
▁Zugleich	-11.5762
▁strengere	-11.5762
▁Akt	-11.5763
▁präzise	-11.5764
over	-11.5765
zahl	-11.5769
▁Einwohner	-11.5769
▁schließt	-11.577
▁enshrined	-11.5771
Re	-11.5773
lit	-11.5773
gekommen	-11.5773
▁Wachstumspakt	-11.5774
lö	-11.5778
▁beeinträchtigen	-11.5779
▁geringen	-11.5783
▁Kunden	-11.5783
▁airport	-11.5784
steuern	-11.5786
▁2008,	-11.5786
greifen	-11.5789
▁write	-11.5793
▁beziehe	-11.5794
▁sections	-11.5796
▁bürgerliche	-11.5798
▁ECOFIN	-11.5799
▁mitgeteilt	-11.5799
▁ähnlich	-11.5803
emissionen	-11.5803
tes	-11.5804
▁gründlich	-11.5806
▁Chile	-11.5808
▁WWU	-11.5808
oli	-11.5809
▁fundamentally	-11.581
▁Schon	-11.581
▁inspection	-11.5812
▁Rechtsstaat	-11.5813
fin	-11.5814
▁era	-11.5817
▁Ausgewogenheit	-11.5818
▁Harbour	-11.5818
▁einbeziehen	-11.5818
▁ownership	-11.5818
▁pick	-11.5818
▁steigen	-11.5826
▁laying	-11.5826
lle	-11.5827
▁Enttäuschung	-11.5828
▁Vermarktung	-11.5828
▁removal	-11.5828
srichtlinie	-11.5829
▁müßten	-11.5832
▁Gegenwärtig	-11.5837
▁voranzutreiben	-11.5837
▁Einleitung	-11.5839
ras	-11.5845
▁bestraft	-11.5847
▁gescheitert	-11.5847
▁Costa	-11.5847
▁Lehne	-11.5848
▁eingebunden	-11.5852
▁Buch	-11.5855
▁zitiere	-11.5855
▁angepasst	-11.5856
▁delivered	-11.5858
▁handling	-11.5865
▁enables	-11.5866
▁adapted	-11.5866
que	-11.5867
▁kurzen	-11.5867
▁Soldaten	-11.5869
▁aufrichtig	-11.5869
europäischen	-11.5872
▁dauerhaften	-11.5874
▁Algerien	-11.5876
▁Überwindung	-11.5876
▁democratisation	-11.5876
▁forestry	-11.5876
▁pace	-11.5876
nce	-11.5878
▁Jahrestag	-11.5879
▁Mengen	-11.5881
▁Rechtsprechung	-11.5886
▁Black	-11.5886
▁teilzunehmen	-11.5886
▁Sahara	-11.5887
▁kurzfristig	-11.5889
▁geeigneten	-11.5892
▁aufgehoben	-11.5893
▁innocent	-11.5895
zig	-11.5898
▁verkauft	-11.5905
▁festgehalten	-11.5906
▁zügig	-11.5908
rechtlichen	-11.5909
▁besucht	-11.5909
▁emphasize	-11.591
▁getroffenen	-11.591
▁Böge	-11.5915
▁anzuerkennen	-11.5915
▁repercussions	-11.5915
▁persecution	-11.5915
▁Kriegs	-11.5918
▁Produktivität	-11.5924
▁stattdessen	-11.5925
▁Ausfuhr	-11.5929
▁Day	-11.593
▁gewählte	-11.5933
▁linguistic	-11.5934
▁middle	-11.5934
▁bewegt	-11.5934
▁einräumen	-11.5936
▁Test	-11.5937
▁begrüßenswert	-11.5938
▁Anbau	-11.594
▁Arbeiter	-11.594
▁pan	-11.5941
▁Bisher	-11.5944
▁Projekts	-11.5945
▁inappropriate	-11.5947
▁lebt	-11.5948
▁medizinische	-11.5958
▁moderne	-11.5959
pack	-11.5959
▁openly	-11.596
▁Zusagen	-11.5961
▁Governance	-11.5962
▁Begrenzung	-11.5963
▁survive	-11.5963
üt	-11.5966
▁Kürzungen	-11.5967
istische	-11.5968
▁recycling	-11.5968
▁Lob	-11.5971
lic	-11.5976
▁grenz	-11.5979
cy	-11.5981
placing	-11.5982
Bendit	-11.5983
▁Flughafen	-11.5983
▁abzuschließen	-11.5983
▁Gelegenheiten	-11.5984
▁Zivilisation	-11.5984
▁7,	-11.5985
▁wherever	-11.5986
zahlen	-11.5987
itz	-11.5989
▁par	-11.599
gelegt	-11.5991
▁Zusammen	-11.5991
▁Colombia	-11.5993
ering	-11.5993
gar	-11.5994
▁meets	-11.5995
▁Lager	-11.5997
▁vertrete	-11.5998
▁falschen	-11.6
▁logic	-11.6001
▁41	-11.6001
▁perform	-11.6002
▁Werk	-11.6002
▁Kindes	-11.6005
▁fashion	-11.6005
▁jeglicher	-11.601
spar	-11.6011
▁Algeria	-11.6012
▁Estland	-11.6012
▁Gesamtheit	-11.6013
▁originally	-11.6015
▁recognize	-11.6018
▁component	-11.6018
▁6,	-11.6018
▁participants	-11.6022
▁twice	-11.6022
▁Cohn	-11.6022
▁planet	-11.6025
ett	-11.6027
▁socially	-11.6027
▁Abänderung	-11.6031
▁Liberties	-11.6032
▁benutzen	-11.6032
▁Reaktionen	-11.6032
▁Robert	-11.6032
▁attached	-11.6034
▁berufliche	-11.6035
▁detriment	-11.6037
▁criticise	-11.6037
▁Ste	-11.6041
▁Finanzminister	-11.6041
seiten	-11.6041
▁sale	-11.6042
halt	-11.6042
▁Madeira	-11.6042
▁aufgezeigt	-11.6042
▁precedent	-11.6042
▁orientation	-11.6042
▁harmonise	-11.6047
▁Ereignissen	-11.6048
▁wise	-11.6049
▁Betreuung	-11.6052
▁Könnte	-11.6052
▁inequalities	-11.6052
▁nahm	-11.6052
▁Everyone	-11.6052
▁liegenden	-11.6052
▁exposed	-11.6054
▁Anmerkung	-11.6058
sbürgerschaft	-11.606
instrumente	-11.6061
▁Gremien	-11.6062
▁abzustimmen	-11.6062
▁Hoffnungen	-11.6062
▁internationally	-11.6063
▁transferred	-11.6064
ons	-11.6065
▁Gesichtspunkt	-11.6065
sagen	-11.6065
ast	-11.6068
▁Partnerschaften	-11.6068
▁quick	-11.6069
▁narrow	-11.6071
▁Wiederaufnahme	-11.6072
fälle	-11.6072
▁Weltmarkt	-11.6072
▁dual	-11.6073
▁Afghan	-11.6081
▁Getreide	-11.6081
▁Stehende	-11.6081
▁inevitably	-11.6081
▁Privatsphäre	-11.6081
▁Erwägungen	-11.6084
▁ehrgeizigen	-11.6087
af	-11.609
lässlich	-11.609
▁Optionen	-11.6091
▁geschafft	-11.6091
▁remote	-11.6091
▁drop	-11.6092
ade	-11.6095
van	-11.6095
▁art	-11.6099
▁differ	-11.61
stätigkeit	-11.6101
▁Schottland	-11.6101
▁getötet	-11.6101
▁Ablauf	-11.6103
▁einziges	-11.6103
▁Direkt	-11.6104
▁sole	-11.6104
▁passieren	-11.6105
▁ursprüngliche	-11.6105
▁schätzen	-11.6105
▁disadvantaged	-11.6105
▁donors	-11.6106
ight	-11.6106
▁Pflanzen	-11.6106
▁berechtigt	-11.6111
▁Klärung	-11.6111
▁Tempo	-11.6111
▁disabilities	-11.6111
▁errichten	-11.6111
▁presidential	-11.6111
▁shame	-11.6114
▁Betriebs	-11.6118
▁wert	-11.6121
▁zuständige	-11.6121
▁Verstöße	-11.6121
▁enabled	-11.6123
▁GMO	-11.6125
▁Fl	-11.6127
▁principal	-11.6128
▁Gu	-11.6128
▁700	-11.613
▁längst	-11.6131
Verordnung	-11.6132
▁Start	-11.6132
▁Autonomie	-11.6133
▁gegenseitig	-11.6134
▁initiated	-11.6135
▁Umweltpolitik	-11.6135
▁Förder	-11.6136
▁Bedingung	-11.6137
▁14.	-11.614
▁beweist	-11.6141
▁preparatory	-11.6141
▁Eigenmittel	-11.6145
▁vorlegt	-11.6147
▁angesprochenen	-11.6147
▁hinnehmen	-11.6152
▁Sowohl	-11.6152
▁Vizepräsidentin	-11.6152
▁Stabilisierung	-11.6154
▁basieren	-11.6156
▁koordiniert	-11.6159
▁researchers	-11.6164
▁Straftaten	-11.6169
srunde	-11.6169
▁John	-11.6171
▁Gegner	-11.6171
▁Gonz	-11.6171
▁strive	-11.6171
▁pressing	-11.6173
▁hinausgehen	-11.6173
▁Mexiko	-11.6175
▁lists	-11.6177
▁Vorbild	-11.6178
▁earthquake	-11.6181
▁routes	-11.6181
schaftlicher	-11.6182
▁vereinfacht	-11.6183
▁appellieren	-11.6186
▁accurate	-11.6187
▁Gewissen	-11.619
▁Thessaloniki	-11.6191
▁gelesen	-11.6191
▁potentially	-11.6194
▁gebunden	-11.6195
▁Kürzung	-11.6197
qualität	-11.6201
▁Bangemann	-11.6201
▁Konsum	-11.6201
▁dependence	-11.6201
▁homes	-11.6202
▁expert	-11.6203
▁Kar	-11.6206
▁31.	-11.6207
▁biologischen	-11.6209
▁multiannual	-11.6211
▁Straßenverkehr	-11.6211
▁lebenden	-11.6211
Kandidatenländer	-11.6214
▁praise	-11.6216
▁Integrität	-11.6221
▁vocational	-11.6221
▁lifelong	-11.6221
▁gleicher	-11.6222
▁Diktatur	-11.6224
▁Mexico	-11.6226
▁obstacle	-11.6228
▁nachhaltig	-11.623
▁appalling	-11.6231
▁ideological	-11.6231
▁Congo	-11.6231
▁Nachrichten	-11.6232
▁Tri	-11.6234
▁abschließen	-11.6234
We	-11.6235
▁foodstuffs	-11.6238
ps	-11.6238
▁constituency	-11.6241
▁abzugeben	-11.6243
part	-11.6248
▁ended	-11.625
▁Bemühen	-11.6251
▁Chemikalien	-11.6252
▁Vorsicht	-11.6253
▁alt	-11.6253
▁erfreulich	-11.6253
▁Vertreterin	-11.6253
▁tape	-11.6254
right	-11.6256
▁combine	-11.6256
▁Wor	-11.6257
▁Sicherstellung	-11.6261
▁western	-11.6262
▁2007,	-11.6263
▁rechts	-11.6264
▁assured	-11.6264
▁Aussprachen	-11.6272
▁travelling	-11.6272
▁Drittstaat	-11.6278
ange	-11.6278
▁verbinden	-11.6281
▁Fourthly	-11.6282
▁externe	-11.6284
sfindung	-11.6285
termin	-11.6291
▁Jacques	-11.6291
▁gekürzt	-11.6291
▁characterised	-11.6293
licher	-11.6296
▁alarming	-11.6297
▁earn	-11.6297
▁korrigieren	-11.6301
▁systematically	-11.6302
▁se	-11.6302
▁findings	-11.6302
▁plus	-11.6306
rates	-11.6307
▁enterprise	-11.6309
▁mine	-11.6311
▁monopoly	-11.6311
▁practically	-11.6311
▁Eingliederung	-11.6311
▁Fahrzeug	-11.6313
▁wished	-11.6316
nis	-11.632
▁comparable	-11.6321
▁Lettland	-11.6321
▁constraints	-11.6322
▁multinational	-11.6322
▁Kofinanzierung	-11.6322
▁bezogen	-11.6322
▁Latvia	-11.6322
▁bereitstellen	-11.6324
dik	-11.6331
▁mittlerweile	-11.6332
▁riesige	-11.6332
▁Erreichen	-11.6333
▁überdenken	-11.6333
▁producer	-11.6333
▁Kommissars	-11.6335
▁Seine	-11.6335
▁incident	-11.6339
▁verliehen	-11.6342
▁Hoheitsgebiet	-11.6342
▁Gender	-11.6343
▁adverse	-11.6349
▁transposition	-11.6352
▁objections	-11.6356
zulegen	-11.6356
▁Standard	-11.6358
▁Vienna	-11.6362
▁zurückkehren	-11.6362
▁Fischbestände	-11.6362
▁automatically	-11.6362
▁workplace	-11.6363
▁Regimes	-11.6368
lt	-11.6369
▁beantragen	-11.637
▁bottom	-11.6372
▁tatsächliche	-11.6373
▁escape	-11.6374
▁Kommunikations	-11.6376
▁floods	-11.6376
izing	-11.6379
▁IV	-11.6381
sermächtigungen	-11.6382
▁vereinbarten	-11.6383
Regierung	-11.6386
▁angeführt	-11.6389
oni	-11.6391
▁complied	-11.6393
▁Verarbeitung	-11.6393
▁strengen	-11.6395
▁demanded	-11.6399
▁Orientierung	-11.64
Prozess	-11.6401
kapital	-11.6402
▁saving	-11.6403
▁concessions	-11.6405
▁Konservativen	-11.6407
▁Nacht	-11.6409
▁adjustment	-11.6412
▁gezahlt	-11.6413
▁wholeheartedly	-11.6414
▁errors	-11.6414
▁modest	-11.6415
schnellstmöglich	-11.6415
▁Sieg	-11.642
▁Finanzrahmen	-11.6422
▁irrespective	-11.6423
Investitionsbank	-11.6426
▁Fahr	-11.643
▁Verluste	-11.643
▁label	-11.6431
▁Büro	-11.6432
▁facility	-11.6433
▁besonderes	-11.6434
▁Mühe	-11.6434
situation	-11.6436
▁assessing	-11.644
▁inspections	-11.644
▁stricter	-11.6441
▁Alzheimer	-11.6444
▁refusal	-11.6444
▁Solange	-11.6444
▁race	-11.6444
▁transparente	-11.6446
▁zwingend	-11.6447
▁broadly	-11.6449
baren	-11.6451
ya	-11.6451
2009	-11.6452
▁Vormittag	-11.6454
▁integrieren	-11.6454
▁steigern	-11.6454
▁Among	-11.6454
▁Sozialfonds	-11.6455
▁abgehalten	-11.6456
▁behindern	-11.6458
Vertrags	-11.6459
▁15.	-11.6462
▁helps	-11.6463
▁Crespo	-11.6464
▁Komitologie	-11.6464
▁zwanzig	-11.6464
▁erstmals	-11.6464
tritt	-11.6469
▁Vergabe	-11.647
▁Schiffen	-11.6472
gut	-11.6473
▁Jede	-11.6473
▁organization	-11.6473
▁Erhalt	-11.6474
▁Berlusconi	-11.6475
▁stating	-11.6475
▁Lärm	-11.6475
SA	-11.6475
▁tourist	-11.6477
▁Jo	-11.6479
▁Toleranz	-11.6481
par	-11.6484
▁Computer	-11.6485
▁Erdbeben	-11.6485
▁Etikettierung	-11.6485
▁abhängen	-11.6485
▁Perspektiven	-11.6487
row	-11.649
▁expand	-11.6494
▁vermittelt	-11.6495
▁serves	-11.6501
▁abandon	-11.6504
▁prejudice	-11.6505
▁abortion	-11.6505
▁entlassen	-11.6506
▁guilty	-11.6506
▁stehende	-11.6507
lief	-11.6508
▁topical	-11.6511
▁mix	-11.6511
▁Mart	-11.6513
▁Arbeitslosen	-11.6513
fisch	-11.6513
▁arm	-11.6514
▁produziert	-11.6516
▁Einmischung	-11.6516
▁patient	-11.6516
versicherung	-11.6519
ht	-11.6519
▁billigen	-11.6519
▁Anlaß	-11.6526
▁deciding	-11.6526
▁geholfen	-11.6526
lichkeiten	-11.6531
▁Hauptziel	-11.6535
▁Operation	-11.6536
▁posts	-11.6538
▁geleitet	-11.6539
gebühren	-11.6541
▁übereinstimmen	-11.6543
▁Kurdish	-11.6547
▁Wohlergehen	-11.6547
▁stopped	-11.6547
▁Finanzmärkte	-11.6549
▁uphold	-11.6549
▁responses	-11.6553
▁thoroughly	-11.6553
▁closing	-11.6557
▁Rehn	-11.6557
▁telling	-11.6558
▁Ansätze	-11.656
▁civilians	-11.656
Krise	-11.6562
wissenschaftlich	-11.6563
dem	-11.6566
▁ausgehandelt	-11.6568
▁Wünsche	-11.6569
▁harte	-11.6572
▁gesetzlichen	-11.6572
fa	-11.6576
▁zugesagt	-11.6576
▁Krieges	-11.6577
▁mountain	-11.6578
▁draftsman	-11.6578
weise	-11.6579
▁stützt	-11.658
seite	-11.6582
▁Somalia	-11.6583
depth	-11.6583
▁Produzenten	-11.6585
▁Erzeugnissen	-11.6587
▁decade	-11.6588
▁survival	-11.6588
▁tremendous	-11.6588
ria	-11.659
▁Nation	-11.6591
employed	-11.6592
tun	-11.6595
▁Augenmerk	-11.6599
▁Paragraph	-11.6599
spunkt	-11.66
▁Bahn	-11.6605
gestellt	-11.6605
▁nützliche	-11.6605
▁comitology	-11.6609
▁Übereinkunft	-11.6609
▁recorded	-11.6612
▁stabile	-11.6616
▁consult	-11.6617
▁camps	-11.6618
▁23.	-11.6619
▁Verteidigungs	-11.662
▁vorsehen	-11.6623
▁ungerecht	-11.6627
schieben	-11.6629
▁grants	-11.6629
▁bases	-11.663
▁deny	-11.6631
▁Weltbank	-11.6632
medicinal	-11.6632
▁osteuropäischen	-11.6633
bild	-11.6637
▁produzieren	-11.6639
▁offizielle	-11.6641
▁Erkenntnisse	-11.6643
▁ansonsten	-11.6651
▁speculation	-11.6651
▁interference	-11.6651
▁dauern	-11.6652
▁Verstoß	-11.6656
welt	-11.6656
▁Third	-11.6658
▁announcement	-11.6658
▁worauf	-11.6658
berg	-11.6658
▁Vorgaben	-11.6661
▁retirement	-11.6661
▁polnischen	-11.6663
▁publication	-11.6666
▁appreciation	-11.6672
▁vertraut	-11.6672
▁nachteilig	-11.6672
tage	-11.6673
streit	-11.6675
smethode	-11.6676
ition	-11.6677
▁await	-11.668
▁formula	-11.668
▁channels	-11.6682
▁delicate	-11.6682
▁worried	-11.6682
▁split	-11.6683
raten	-11.6683
▁namentlich	-11.6684
▁800	-11.6685
▁owe	-11.6692
▁gesorgt	-11.6693
▁coordinating	-11.6693
▁wake	-11.6693
▁protectionism	-11.6694
▁Skandal	-11.6695
▁Fundament	-11.6696
▁remained	-11.6698
▁islands	-11.6704
▁Beobachtung	-11.6704
▁Tor	-11.6707
▁euros	-11.6707
▁Staatsangehörig	-11.6707
▁aufge	-11.6708
mark	-11.6709
not	-11.6711
▁zulässig	-11.6711
▁genetic	-11.6714
▁retten	-11.6714
▁banana	-11.6715
▁won	-11.6715
▁Gedanke	-11.6716
▁Grenzwerte	-11.6716
kette	-11.6718
96	-11.6723
pflicht	-11.6724
▁relief	-11.6726
▁schlechten	-11.6728
▁Gut	-11.6729
▁52	-11.6729
▁criticised	-11.6729
▁benachteiligten	-11.6732
pass	-11.6735
▁remit	-11.6738
buch	-11.674
▁übrig	-11.6744
SL	-11.6744
▁career	-11.6747
▁schuldig	-11.6748
▁town	-11.675
▁convey	-11.6751
▁disregard	-11.6751
lar	-11.6752
hnen	-11.6753
▁pillars	-11.6754
▁atmosphere	-11.6756
▁zuzustimmen	-11.6756
▁Ziels	-11.6757
▁grundlegend	-11.6758
▁rating	-11.6759
▁Inhalte	-11.6759
▁scheduled	-11.6759
▁cl	-11.676
▁TEN	-11.676
▁deadlines	-11.6763
▁Kauf	-11.6765
ika	-11.6768
ration	-11.6768
95	-11.677
drew	-11.677
▁Konsultationen	-11.6773
mäßig	-11.6775
▁indirekt	-11.6781
▁anführen	-11.6783
▁ausreichen	-11.6783
▁Händen	-11.6784
▁marks	-11.6785
▁subjected	-11.6785
▁federal	-11.6786
▁vague	-11.6788
▁Presidents	-11.679
▁Substanzen	-11.679
▁Erde	-11.679
▁criticisms	-11.6791
▁Zusatz	-11.6791
ological	-11.6794
▁53	-11.6794
▁hinreichend	-11.6799
lam	-11.6799
▁grundsätzliche	-11.68
▁assessed	-11.68
▁portugiesische	-11.6801
▁lesson	-11.6807
▁Zweiten	-11.6807
▁indirect	-11.6809
▁veranlassen	-11.6809
▁pays	-11.681
▁Gespräch	-11.6815
▁schrecklichen	-11.6818
smechanismen	-11.682
▁nachkommen	-11.682
▁Protektionismus	-11.682
liegen	-11.682
▁geschrieben	-11.6821
▁thirdly	-11.6822
▁ernsten	-11.6823
▁Stufe	-11.6833
▁biofuels	-11.6833
splan	-11.6834
▁exceed	-11.684
▁zero	-11.6842
▁contradiction	-11.6843
▁technologischen	-11.6844
12	-11.6851
▁Federation	-11.6852
▁Wogau	-11.6852
▁142)	-11.6852
▁isolation	-11.6852
▁2008.	-11.6854
▁möge	-11.6854
ev	-11.6855
▁Unfälle	-11.6855
legung	-11.6855
▁beider	-11.6857
jährige	-11.6859
▁tuna	-11.6859
▁Übergangs	-11.6859
▁Mädchen	-11.6862
▁creative	-11.6862
sam	-11.6863
▁Runde	-11.6863
▁trouble	-11.6868
▁vollen	-11.6868
unter	-11.6869
▁ausmachen	-11.6871
lan	-11.6871
▁Hindernis	-11.6871
▁composition	-11.6873
▁gesunden	-11.6875
▁Weltwirtschaft	-11.6878
wer	-11.6879
▁missions	-11.688
▁root	-11.6881
▁strange	-11.6884
▁Besitz	-11.6884
▁references	-11.6886
▁ähnlichen	-11.6887
▁führenden	-11.6887
stellt	-11.6892
▁Rats	-11.6893
▁Insgesamt	-11.6895
▁telephone	-11.6895
▁onto	-11.6901
▁invitation	-11.6905
▁voneinander	-11.6905
▁überflüssig	-11.6905
▁incidents	-11.6908
▁formally	-11.6908
▁Satelliten	-11.6912
▁audiovisual	-11.6916
▁km	-11.6916
▁arrangement	-11.6918
▁inneren	-11.6918
▁Dritten	-11.6923
▁arabischen	-11.6925
▁positiver	-11.6926
▁diplomatischen	-11.6927
▁verknüpft	-11.6927
▁mother	-11.6929
▁unabdingbar	-11.6936
▁geschenkt	-11.6938
▁geltende	-11.6938
▁gestellten	-11.6939
▁Ri	-11.6939
▁notes	-11.694
▁macro	-11.6948
Verschlechterung	-11.6948
▁Hat	-11.695
▁Investoren	-11.6953
▁estimates	-11.6953
bestimmungen	-11.6955
arch	-11.6956
▁steel	-11.6959
versammlung	-11.696
▁geleistete	-11.6962
▁Schiff	-11.6967
▁returned	-11.6968
▁Wohl	-11.697
▁2007.	-11.6974
▁aufgeworfen	-11.6976
▁vorgelegte	-11.6979
▁Plenarsaal	-11.6981
▁Funktionsweise	-11.6981
▁Befürchtungen	-11.6984
▁Preisen	-11.6985
▁2006.	-11.6988
▁passing	-11.6989
▁Kenntnisse	-11.699
▁weise	-11.6991
▁Frühjahr	-11.6992
▁angenommene	-11.6998
▁Pen	-11.6998
▁Besonderheiten	-11.7003
▁Haushaltslinie	-11.7005
▁ordnungsgemäße	-11.7006
▁condemnation	-11.7007
▁Congress	-11.7013
▁Erneuerung	-11.7013
▁Geber	-11.7017
▁vorgeschrieben	-11.7018
▁reviewed	-11.7019
richtung	-11.7019
▁corporate	-11.7024
▁moratorium	-11.7024
▁auszuarbeiten	-11.7024
▁ausgedrückt	-11.7026
▁Democrat	-11.7027
ail	-11.7029
▁schwerer	-11.7032
▁begleitet	-11.7035
▁beneficiaries	-11.7035
▁Oder	-11.7038
▁älteren	-11.704
dis	-11.7041
▁withdrawn	-11.7041
▁Göteborg	-11.7046
▁combination	-11.7046
▁obliegt	-11.7046
istic	-11.7047
gebracht	-11.7047
▁obtaining	-11.7049
▁Einigkeit	-11.705
elekommunikation	-11.7051
möglichkeiten	-11.7053
▁Trennung	-11.7057
▁victory	-11.7057
uc	-11.7057
▁aufhören	-11.7057
▁unternimmt	-11.7059
▁Rechnungshofs	-11.7059
ili	-11.706
ct	-11.7062
▁Spar	-11.7062
▁topics	-11.7066
▁Should	-11.7068
▁Team	-11.7068
▁sofortige	-11.7068
bra	-11.7069
▁born	-11.707
▁entail	-11.7071
kriterien	-11.7072
▁arrested	-11.7076
▁Russlands	-11.7076
▁einiges	-11.7076
▁formulieren	-11.7079
▁verweigert	-11.7079
▁authorised	-11.7081
▁verbreitet	-11.7082
bildung	-11.7085
▁realised	-11.7087
▁reminded	-11.7088
▁tr	-11.7089
▁allgemeinem	-11.7091
tische	-11.7092
▁multinationalen	-11.7095
▁Schiffs	-11.7098
gabe	-11.71
▁Byrne	-11.71
▁stattfand	-11.71
PA	-11.7101
▁Register	-11.7102
▁depth	-11.7106
▁integriert	-11.7109
▁addresses	-11.7109
▁hervorzuheben	-11.7112
▁articles	-11.7112
▁ehe	-11.7113
▁everyday	-11.7114
▁wonderful	-11.7115
▁enforce	-11.7117
▁persuade	-11.7118
▁analyse	-11.7121
Meinungsfreiheit	-11.7122
▁Fontaine	-11.7122
▁clarified	-11.7122
▁unprecedented	-11.7122
▁gewöhnlich	-11.7122
hersteller	-11.7122
▁Mauer	-11.7122
▁o	-11.7129
rd	-11.713
▁glaubwürdig	-11.7135
▁dringende	-11.7136
▁Zusage	-11.7136
▁Christians	-11.7137
sorganisation	-11.7138
▁slaughter	-11.7139
uite	-11.7141
▁Einsparungen	-11.7141
▁weitergehen	-11.7143
jo	-11.7143
▁govern	-11.7143
▁Israels	-11.7144
▁remedy	-11.7144
▁privatisation	-11.7145
▁Ursprung	-11.7147
Rahmenrichtlinie	-11.7148
▁51	-11.715
▁gefährlicher	-11.7153
▁Bildungs	-11.7155
▁entzieht	-11.7155
▁Datum	-11.7157
mail	-11.7157
▁Flugzeug	-11.7158
▁Investitions	-11.7159
▁gestrigen	-11.7162
▁übernimmt	-11.7162
14	-11.7163
▁getrennt	-11.7163
▁Jerusalem	-11.7164
▁smoking	-11.7165
▁towns	-11.7165
▁Handelspolitik	-11.7166
▁passive	-11.7167
▁remarkable	-11.7167
▁arises	-11.7167
INI	-11.7168
▁wahre	-11.7169
▁avoiding	-11.7169
probleme	-11.7171
▁blockiert	-11.7173
▁geistige	-11.7177
Ausnahmeregelung	-11.7178
ino	-11.7178
▁kosten	-11.7178
rig	-11.718
▁Treibhausgase	-11.718
heim	-11.7183
Programms	-11.7184
▁Ehe	-11.7187
▁disadvantage	-11.7188
▁erneuerbarer	-11.7188
▁Bestrebungen	-11.7188
▁Gremium	-11.7188
▁Holz	-11.7188
▁empty	-11.7188
▁aufgerufen	-11.7188
Raum	-11.7189
▁Ruhe	-11.7189
▁Gemeinden	-11.7196
▁Erasmus	-11.7198
▁Löhne	-11.7199
▁Rahmenbeschluss	-11.7199
▁genocide	-11.7199
▁Befreiung	-11.7199
▁Lo	-11.72
funktion	-11.7202
aut	-11.7203
▁annehmbar	-11.7204
000	-11.7206
▁Dis	-11.7207
▁transfers	-11.7209
gehalten	-11.7209
▁gelernt	-11.721
▁Nachteile	-11.721
▁abolish	-11.721
▁fossil	-11.721
▁Grundsatzes	-11.7212
▁sensiblen	-11.7213
▁einander	-11.7215
press	-11.7221
▁LIFE	-11.7222
▁widerspiegeln	-11.7222
▁cells	-11.7223
▁Höchst	-11.7225
arbeiter	-11.7227
▁demonstration	-11.7227
ute	-11.7227
▁distinguish	-11.7228
▁Großen	-11.723
▁verfahren	-11.723
▁WHO	-11.7233
▁unangemessen	-11.7233
▁anywhere	-11.7234
▁input	-11.7235
▁reverse	-11.7239
▁Auflagen	-11.724
▁publish	-11.7243
▁Schule	-11.7243
ssektor	-11.7247
▁Fußball	-11.7248
/02	-11.7251
zubringen	-11.7253
▁GASP	-11.7255
▁Malmström	-11.7255
▁pragmatic	-11.7255
▁prinzipiell	-11.7255
▁Weltkrieg	-11.7258
▁niedrig	-11.7264
rechtzuerhalten	-11.7266
▁phrase	-11.7266
▁Einerseits	-11.7266
▁Verlagerung	-11.7266
▁Ha	-11.727
DEM	-11.7274
state	-11.7276
▁dear	-11.7276
▁Verhütung	-11.7277
▁facilitating	-11.7277
▁alliance	-11.7277
▁Delors	-11.7277
ath	-11.7284
▁Asian	-11.7284
▁schriftliche	-11.7284
▁würdigen	-11.7287
▁begrenzte	-11.7287
▁elektronische	-11.7287
▁Energieträger	-11.7289
▁Personenverkehr	-11.729
▁2004.	-11.7294
erzeugung	-11.7296
▁messen	-11.7299
▁Streichung	-11.7299
▁heavily	-11.7299
▁Erhebung	-11.73
▁instability	-11.73
▁workforce	-11.7301
▁consists	-11.7302
▁Futtermittel	-11.7303
alität	-11.7304
▁Allein	-11.7306
▁gutem	-11.7306
▁schwerwiegende	-11.7308
▁Schwerpunkte	-11.7308
▁kennt	-11.7309
▁Arafat	-11.7311
sdienste	-11.7316
▁pesticides	-11.7318
erzeugnissen	-11.7322
netze	-11.7322
▁Rio	-11.7325
sgrundlage	-11.7326
3/	-11.7329
▁ultimate	-11.733
▁Einreise	-11.7333
▁beschäftigungs	-11.7334
▁sustained	-11.7337
▁differently	-11.7341
▁presents	-11.7342
▁vorzubereiten	-11.7344
▁IND	-11.7345
kommt	-11.7347
▁governed	-11.7349
▁Beendigung	-11.7355
▁flexibel	-11.7355
▁streichen	-11.7356
▁1980	-11.7356
▁illegaler	-11.7357
▁unnötig	-11.7362
▁served	-11.7362
gre	-11.7363
▁trends	-11.7363
▁Besitzstand	-11.7364
▁Bonino	-11.7367
▁exert	-11.7367
▁enjoyed	-11.7368
▁aufgreifen	-11.737
▁reinforced	-11.7376
▁Ersatz	-11.7377
▁sexuelle	-11.7377
▁livestock	-11.7378
▁verkaufen	-11.7378
▁Nordic	-11.7379
▁gleichberechtig	-11.7383
▁Monopol	-11.7384
▁investing	-11.7384
alen	-11.7384
bgesehen	-11.7386
▁Kontinents	-11.7389
▁debattieren	-11.7389
▁indispensable	-11.7389
▁einhergehen	-11.7389
▁Part	-11.7389
▁Cox	-11.7391
▁IT	-11.7393
▁contributes	-11.7395
▁Wesen	-11.7396
werten	-11.7397
▁registered	-11.7399
▁engagieren	-11.74
▁indicates	-11.7401
▁technisch	-11.7402
▁natürliche	-11.7403
▁irgendeiner	-11.7404
bed	-11.7411
▁monopolies	-11.7412
▁unglaublich	-11.7412
▁xenophobia	-11.7412
abschätzung	-11.7413
▁moderate	-11.7414
▁normally	-11.7414
▁abolished	-11.7417
▁vieles	-11.7418
▁Universitäten	-11.7423
▁Hague	-11.7423
▁qualifizierte	-11.7423
▁Rückführung	-11.7423
▁organ	-11.7424
▁Daß	-11.7426
dauer	-11.7429
▁schauen	-11.7432
▁Through	-11.7434
▁Gewässern	-11.7436
energie	-11.7437
▁verbesserte	-11.7441
▁Wäre	-11.7441
▁Ruf	-11.7444
▁incomes	-11.7444
▁Perspective	-11.7446
▁errichtet	-11.7446
▁umgekehrt	-11.7446
▁Apart	-11.7449
▁Business	-11.7451
▁illegally	-11.7453
▁Rentner	-11.7457
▁Glückwunsch	-11.7457
▁assembly	-11.7457
▁Pressefreiheit	-11.7457
▁vorankommen	-11.7457
▁whenever	-11.7461
▁adding	-11.7461
▁donor	-11.7463
▁bekommt	-11.7464
▁zivilen	-11.7465
defizit	-11.7466
▁Unrecht	-11.7466
▁attempting	-11.7467
▁seiten	-11.7473
▁befürchten	-11.7474
übergreifende	-11.7475
▁strikes	-11.7477
▁22.	-11.7479
▁disparities	-11.748
▁stresses	-11.7484
▁makroökonomisch	-11.7485
▁resort	-11.7485
▁zeitlich	-11.7486
▁gases	-11.7488
▁einschlägigen	-11.7489
▁vorbereiten	-11.7489
▁quantity	-11.7491
▁beachtet	-11.7491
▁removing	-11.7491
missionen	-11.7493
▁prompt	-11.7494
▁witnessed	-11.7495
arischen	-11.7497
▁responding	-11.7498
▁Auffassungen	-11.7499
behörden	-11.7501
mangel	-11.7501
▁einzuräumen	-11.7503
▁Bezüglich	-11.7503
▁Aufteilung	-11.7504
▁mangelt	-11.7505
▁offences	-11.7505
▁Außenhandel	-11.7505
erzeugnisse	-11.7507
Nein	-11.7507
▁vorbei	-11.7509
▁Amsterdamer	-11.7509
▁israelische	-11.7512
▁Registrierung	-11.7514
▁gebildet	-11.7514
▁describe	-11.7516
▁Hunderte	-11.7517
▁konstruktiv	-11.752
▁Arzneimitteln	-11.7522
▁devote	-11.7522
▁Standort	-11.7523
▁teuer	-11.7525
Haushalt	-11.7526
▁54	-11.7527
▁erkennt	-11.7527
▁Directorate	-11.7527
▁lowest	-11.7528
▁ungarische	-11.753
▁Akteuren	-11.7534
▁Strafen	-11.7534
▁solving	-11.7537
▁Democracy	-11.7537
▁Streitkräfte	-11.7537
▁Forscher	-11.7538
gi	-11.7539
gram	-11.7541
▁enorm	-11.7542
▁Ju	-11.7545
▁Rothley	-11.7548
▁rigid	-11.7548
▁Go	-11.7548
▁station	-11.7551
▁Erdgas	-11.7555
▁unlike	-11.7557
▁Peace	-11.756
▁enthusiasm	-11.756
▁inevitable	-11.756
▁spüren	-11.756
▁David	-11.756
lp	-11.7562
▁Hände	-11.7565
▁informellen	-11.7565
▁Annan	-11.7565
▁expenses	-11.7566
▁Endes	-11.7567
▁footing	-11.757
▁eingebrachten	-11.7572
▁Impulse	-11.7573
▁Protest	-11.7573
material	-11.7575
▁posed	-11.7575
▁Zentral	-11.7576
▁149)	-11.7577
▁licence	-11.7578
▁quarter	-11.7578
▁Vertiefung	-11.7583
▁beizubehalten	-11.7583
▁heutzutage	-11.7583
▁licences	-11.7587
▁satisfy	-11.7587
▁Profit	-11.7588
kom	-11.7588
▁Ga	-11.7591
▁gemeldet	-11.7594
▁irresponsible	-11.7594
▁Reichtum	-11.7594
machen	-11.7595
Initiativbericht	-11.7596
▁Far	-11.7601
anten	-11.7602
▁klein	-11.7602
santrags	-11.7605
▁gefaßt	-11.7605
▁Fremdenfeind	-11.7606
▁caught	-11.7606
▁Trend	-11.7606
▁isolated	-11.7607
▁Anlage	-11.7613
ace	-11.7613
▁Ihres	-11.7615
▁festgeschrieben	-11.7617
▁gefällt	-11.7618
▁tätigen	-11.762
▁Fahrer	-11.7621
▁effizienten	-11.7621
regelungen	-11.7622
pen	-11.7626
▁lehnt	-11.7627
▁patents	-11.7628
▁Nielson	-11.7629
▁fragile	-11.7629
hal	-11.763
▁emerge	-11.7631
▁Kong	-11.7635
▁Dienstes	-11.7636
▁cod	-11.7638
▁ausgedehnt	-11.764
▁recognising	-11.764
▁match	-11.7642
▁begann	-11.7645
vier	-11.7647
▁Mitarbeitern	-11.765
▁merit	-11.7651
▁Beantwortung	-11.7652
▁Mulder	-11.7652
▁democracies	-11.7652
▁availability	-11.7652
▁56	-11.7653
▁Freiwilligen	-11.7656
▁rare	-11.766
maß	-11.7663
▁Föderation	-11.7663
▁verschärfen	-11.7663
▁Erziehung	-11.7664
▁bauen	-11.7664
▁str	-11.7664
▁problematic	-11.7664
▁emphasises	-11.7664
▁fa	-11.7666
lot	-11.7666
▁publicly	-11.7669
▁CFSP	-11.7671
▁vertrauen	-11.7673
▁Handelsabkommen	-11.7675
▁entziehen	-11.7675
▁komplizierten	-11.7676
▁zukommt	-11.7676
▁Gehör	-11.7676
pos	-11.7683
▁Merkmale	-11.7685
▁Neighbourhood	-11.7686
▁Oostlander	-11.7686
mitteln	-11.7689
▁ILO	-11.7694
▁profound	-11.7695
▁fr	-11.7695
▁bisweilen	-11.7698
▁demnächst	-11.7698
▁kostet	-11.7698
▁toxic	-11.7698
▁Unglück	-11.7698
ktion	-11.7699
work	-11.7699
tte	-11.7704
▁Gleiche	-11.7704
▁reale	-11.7705
bri	-11.7708
▁Islands	-11.7709
▁bedürfen	-11.771
▁pointing	-11.7711
▁online	-11.7712
▁Obergrenze	-11.7715
▁concepts	-11.7718
▁affair	-11.7718
▁Ereignis	-11.7719
▁bemerken	-11.7721
▁schweigen	-11.7721
▁Barrot	-11.7722
ER	-11.7722
ong	-11.7726
imp	-11.7726
rk	-11.7729
ua	-11.7732
▁Sarkozy	-11.7733
▁surprising	-11.7733
▁Garc	-11.7734
mission	-11.7735
cent	-11.7738
▁positives	-11.7743
jahr	-11.7743
▁Has	-11.7744
▁Caucasus	-11.7745
▁applaud	-11.7751
zeichen	-11.7752
▁verfasst	-11.7756
▁haushalts	-11.7757
▁hundert	-11.7758
▁frankly	-11.7759
▁Währungs	-11.7764
▁aspirations	-11.7765
▁bitter	-11.7766
▁gemeint	-11.7767
cher	-11.7768
▁believed	-11.7768
▁Aktionsplans	-11.7776
erzeuger	-11.7777
▁Seeverkehr	-11.7779
▁Mandelson	-11.778
▁jemals	-11.778
▁übertrieben	-11.778
50	-11.778
▁earmarked	-11.7781
cl	-11.7789
▁doors	-11.779
▁faktisch	-11.7792
▁vermutlich	-11.7792
▁Redebeitrag	-11.7792
▁claimed	-11.7793
▁Indonesia	-11.7797
Frage	-11.7797
feld	-11.7804
▁einleiten	-11.7804
▁poorer	-11.7812
stellungen	-11.7812
▁Ganzen	-11.7813
▁cattle	-11.7815
bahn	-11.7816
▁Hinter	-11.7816
▁unterzeichnen	-11.7827
▁Laut	-11.7829
▁saubere	-11.783
▁Betreiber	-11.7832
führen	-11.7833
US	-11.7836
▁Conciliation	-11.7839
▁gratitude	-11.7839
▁courageous	-11.7839
▁Sir	-11.784
▁agieren	-11.7842
▁Spitze	-11.7844
▁interventions	-11.7848
▁freiwillige	-11.7849
▁Cardiff	-11.785
▁philosophy	-11.785
▁erreichten	-11.7861
▁greifen	-11.7862
▁Indonesien	-11.7862
▁Monitoring	-11.7862
▁widerspiegelt	-11.7862
▁limiting	-11.7865
▁Aufruf	-11.7865
▁Autos	-11.7866
GA	-11.7866
minister	-11.7869
▁junger	-11.7871
▁Europäern	-11.7871
ki	-11.7874
▁inequality	-11.7874
▁quo	-11.7875
▁manifest	-11.7879
seinrichtungen	-11.7883
▁Geschwindigkeit	-11.7886
▁conceal	-11.7886
▁securing	-11.7886
▁energies	-11.7886
▁Bestreben	-11.7886
▁Hong	-11.7886
▁Ursprungs	-11.7887
ient	-11.7889
▁Nachricht	-11.789
zer	-11.789
produkten	-11.7892
▁unverzichtbar	-11.7893
▁appeared	-11.7894
▁weaken	-11.7895
öl	-11.7897
▁UCLAF	-11.7898
▁repair	-11.7898
▁Mitgliedstaats	-11.79
▁bewirkt	-11.7901
fahren	-11.7903
▁Slovak	-11.7904
ED	-11.7904
▁Gleichberechtig	-11.7906
▁hinder	-11.7906
▁vorausgesetzt	-11.791
▁unmittelbare	-11.7912
▁benachteiligt	-11.7917
▁wünscht	-11.7917
▁besseres	-11.7917
misunderstanding	-11.7919
▁Peking	-11.7921
▁Velzen	-11.7921
igung	-11.7922
▁interpreted	-11.7926
▁player	-11.7928
fü	-11.7929
marktes	-11.7933
▁ratifizieren	-11.7933
▁yield	-11.7933
▁qua	-11.7937
▁wild	-11.7939
▁bomb	-11.794
▁kon	-11.7942
tausend	-11.7944
ep	-11.7945
▁stärkt	-11.7945
▁verschwinden	-11.7945
▁Obama	-11.7945
▁disappointment	-11.7945
▁Pflege	-11.7945
beauftragte	-11.7946
▁koordinierte	-11.7949
wende	-11.795
▁Angehörigen	-11.795
▁maybe	-11.7952
▁assert	-11.7953
▁disagreement	-11.7953
▁vielfach	-11.7955
▁biological	-11.7957
▁komplizierte	-11.7958
bestand	-11.7959
▁symbolic	-11.7959
disproportionate	-11.7959
▁zivile	-11.7965
han	-11.7968
Außenbeziehungen	-11.797
▁indirectly	-11.7973
▁handled	-11.7977
▁Gegebenheiten	-11.7981
▁concluding	-11.7981
▁zerstören	-11.7981
▁personenbezogen	-11.7981
lk	-11.7983
▁Voraus	-11.7988
schau	-11.7991
▁Akzeptanz	-11.7993
▁Vollendung	-11.7993
▁displaced	-11.7993
▁Straßenverkehrs	-11.7994
▁versetzt	-11.7994
▁multinationals	-11.7995
▁Europarat	-11.7997
▁empfehle	-11.7998
▁strukturellen	-11.7999
▁Beschlusses	-11.8003
enz	-11.8004
▁Until	-11.8005
▁website	-11.8005
▁Prize	-11.8005
▁Gra	-11.8011
▁8,	-11.8011
mä	-11.8012
▁einseitig	-11.8015
▁Haben	-11.8016
Entwicklungsziel	-11.8016
▁Beijing	-11.8017
▁ermutigt	-11.8017
▁Etappe	-11.8017
▁Plenarsitzung	-11.8017
▁diplomatische	-11.8017
▁Votum	-11.8017
▁Völkerrecht	-11.8018
▁Each	-11.8019
gibt	-11.8021
tier	-11.8022
▁Mu	-11.8023
▁advances	-11.8026
▁jahrelang	-11.8029
▁manufacturing	-11.8029
▁robust	-11.8029
▁Ärzte	-11.8029
▁Vielmehr	-11.8029
▁Merkel	-11.8029
▁Against	-11.803
▁Soweit	-11.8031
märkte	-11.8033
▁Herkunftsland	-11.8035
▁ältere	-11.8036
sammengearbeitet	-11.8037
mengen	-11.8039
gewalt	-11.8041
ausstattung	-11.8041
▁Völkermord	-11.8041
▁Board	-11.8041
▁Sal	-11.8043
▁Za	-11.8045
▁Rechtsakte	-11.8049
▁focuses	-11.805
▁engen	-11.8053
▁requiring	-11.8053
▁Evans	-11.8053
▁wirft	-11.8053
▁versetzen	-11.8055
sminister	-11.8058
▁kleineren	-11.8062
laufen	-11.8065
▁Autorität	-11.8065
put	-11.8065
▁Reisen	-11.8074
▁tragischen	-11.8076
▁hochrangige	-11.8077
▁outbreak	-11.8077
▁Umstand	-11.8079
▁expressly	-11.8085
▁relationships	-11.8086
▁tariff	-11.8087
▁Dossier	-11.8088
▁flag	-11.8089
▁analysieren	-11.8089
▁zuversichtlich	-11.8089
Ivoire	-11.8089
▁Bewohner	-11.8089
▁occupied	-11.8089
▁Anzeichen	-11.809
▁entschuldigen	-11.8096
▁Dell	-11.8096
▁Eigentums	-11.8097
▁neighbour	-11.8098
▁Bestätigung	-11.8101
▁dairy	-11.8101
▁eindringlich	-11.8101
▁egal	-11.8102
rm	-11.8104
COS	-11.8105
▁niedrigen	-11.8105
▁delayed	-11.8109
▁üblich	-11.8111
▁flight	-11.8113
▁dedicated	-11.8114
▁threatening	-11.8114
▁begrenzen	-11.8118
▁Rednern	-11.8121
▁initiate	-11.8121
▁Lebensbedingung	-11.8123
▁schlimmsten	-11.8124
▁Gestern	-11.8125
▁beurteilt	-11.8126
▁hide	-11.8127
▁bemerkt	-11.8129
rufen	-11.813
▁postponed	-11.813
▁Erwerb	-11.813
▁Aufstellung	-11.8132
▁lend	-11.8132
▁warming	-11.8135
▁Neither	-11.8138
▁intelligence	-11.8138
▁preferred	-11.8138
▁Chinas	-11.8144
▁2005.	-11.8148
▁broken	-11.8148
▁confirms	-11.8148
▁Genugtuung	-11.815
▁McCreevy	-11.815
▁drohen	-11.815
Überschwemmungen	-11.8151
▁drinking	-11.8153
▁encouragement	-11.8153
▁aiming	-11.8158
wachsen	-11.8158
▁Genfer	-11.8158
▁letztes	-11.816
spläne	-11.8161
Behrendt	-11.8162
▁radioactive	-11.8162
▁aktuell	-11.8163
▁Einbindung	-11.8163
zin	-11.8164
änge	-11.8164
▁sectoral	-11.8165
▁Lange	-11.8165
▁Aufenthalt	-11.8165
sinstrumente	-11.8172
▁soft	-11.8173
▁feasible	-11.8174
▁quantities	-11.8174
▁preference	-11.8174
▁Schlacht	-11.8175
▁CIA	-11.8175
▁Volks	-11.8175
/20	-11.8179
▁abandoned	-11.818
sprachen	-11.8182
▁Freedoms	-11.8183
bringt	-11.8185
▁Film	-11.8185
▁scandal	-11.8186
▁Lulling	-11.8186
▁Schreyer	-11.8186
▁charter	-11.8186
▁cooperative	-11.8186
▁veto	-11.8186
losigkeit	-11.8187
▁festlegt	-11.8187
niveau	-11.8188
▁Euroraum	-11.819
▁Verfasserin	-11.8191
▁kenne	-11.8193
skraft	-11.8195
▁burdens	-11.8196
▁Diesen	-11.8198
▁Hongkong	-11.8198
[...]
